#include "magic_wand_model_data.h"


// We need to keep the data array aligned on some architectures.

#ifdef __has_attribute

#define HAVE_ATTRIBUTE(x) __has_attribute(x)

#else

#define HAVE_ATTRIBUTE(x) 0

#endif

#if HAVE_ATTRIBUTE(aligned) || (defined(__GNUC__) && !defined(__clang__))

#define DATA_ALIGN_ATTRIBUTE __attribute__((aligned(4)))

#else

#define DATA_ALIGN_ATTRIBUTE

#endif


const unsigned char g_magic_wand_model_data[] DATA_ALIGN_ATTRIBUTE = {

  // Paste the data of the char array in `src/model.cc` here
0x08, 0x00, 0x00, 0x00, 0x54, 0x46, 0x4c, 0x33, 0x62, 0xff, 0xff, 0xff,
  0x03, 0x00, 0x00, 0x00, 0x10, 0x00, 0x00, 0x00, 0x24, 0x00, 0x00, 0x00,
  0x78, 0x00, 0x00, 0x00, 0x24, 0x00, 0x00, 0x00, 0x05, 0x00, 0x00, 0x00,
  0x78, 0x05, 0x00, 0x00, 0xb0, 0x04, 0x00, 0x00, 0xe0, 0x02, 0x00, 0x00,
  0x60, 0x02, 0x00, 0x00, 0x54, 0x01, 0x00, 0x00, 0x01, 0x00, 0x00, 0x00,
  0x78, 0x00, 0x00, 0x00, 0x13, 0x00, 0x00, 0x00, 0xd4, 0x2f, 0x00, 0x00,
  0xd0, 0x2f, 0x00, 0x00, 0xdc, 0x2e, 0x00, 0x00, 0x68, 0x2e, 0x00, 0x00,
  0xfc, 0x2d, 0x00, 0x00, 0xac, 0x11, 0x00, 0x00, 0x98, 0x10, 0x00, 0x00,
  0xbc, 0x0e, 0x00, 0x00, 0x60, 0x06, 0x00, 0x00, 0xfc, 0x05, 0x00, 0x00,
  0x78, 0x05, 0x00, 0x00, 0xa8, 0x2f, 0x00, 0x00, 0xa4, 0x2f, 0x00, 0x00,
  0xa0, 0x2f, 0x00, 0x00, 0x9c, 0x2f, 0x00, 0x00, 0x98, 0x2f, 0x00, 0x00,
  0x94, 0x2f, 0x00, 0x00, 0x90, 0x2f, 0x00, 0x00, 0x8c, 0x2f, 0x00, 0x00,
  0x0f, 0x00, 0x00, 0x00, 0x4d, 0x4c, 0x49, 0x52, 0x20, 0x43, 0x6f, 0x6e,
  0x76, 0x65, 0x72, 0x74, 0x65, 0x64, 0x2e, 0x00, 0x00, 0x00, 0x0e, 0x00,
  0x18, 0x00, 0x04, 0x00, 0x08, 0x00, 0x0c, 0x00, 0x10, 0x00, 0x14, 0x00,
  0x0e, 0x00, 0x00, 0x00, 0x14, 0x00, 0x00, 0x00, 0x5c, 0x00, 0x00, 0x00,
  0x60, 0x00, 0x00, 0x00, 0x64, 0x00, 0x00, 0x00, 0x84, 0x00, 0x00, 0x00,
  0x12, 0x00, 0x00, 0x00, 0x04, 0x2f, 0x00, 0x00, 0xa0, 0x2e, 0x00, 0x00,
  0xf8, 0x2d, 0x00, 0x00, 0x98, 0x2d, 0x00, 0x00, 0x30, 0x2d, 0x00, 0x00,
  0xdc, 0x10, 0x00, 0x00, 0xc0, 0x0f, 0x00, 0x00, 0xe4, 0x0d, 0x00, 0x00,
  0xa0, 0x05, 0x00, 0x00, 0x3c, 0x05, 0x00, 0x00, 0xb0, 0x04, 0x00, 0x00,
  0xe8, 0x03, 0x00, 0x00, 0x38, 0x03, 0x00, 0x00, 0xa4, 0x02, 0x00, 0x00,
  0x10, 0x02, 0x00, 0x00, 0x90, 0x01, 0x00, 0x00, 0xfc, 0x00, 0x00, 0x00,
  0x80, 0x00, 0x00, 0x00, 0x01, 0x00, 0x00, 0x00, 0x00, 0x00, 0x00, 0x00,
  0x01, 0x00, 0x00, 0x00, 0x11, 0x00, 0x00, 0x00, 0x08, 0x00, 0x00, 0x00,
  0x1c, 0x04, 0x00, 0x00, 0x58, 0x03, 0x00, 0x00, 0xc8, 0x02, 0x00, 0x00,
  0x24, 0x02, 0x00, 0x00, 0xac, 0x01, 0x00, 0x00, 0x10, 0x01, 0x00, 0x00,
  0x94, 0x00, 0x00, 0x00, 0x10, 0x00, 0x00, 0x00, 0x04, 0x00, 0x00, 0x00,
  0x6d, 0x61, 0x69, 0x6e, 0x00, 0x00, 0x00, 0x00, 0x8e, 0xff, 0xff, 0xff,
  0x00, 0x00, 0x00, 0x09, 0x04, 0x00, 0x00, 0x00, 0x1c, 0x00, 0x00, 0x00,
  0x10, 0x00, 0x00, 0x00, 0x04, 0x00, 0x00, 0x00, 0x4e, 0xd2, 0xff, 0xff,
  0x00, 0x00, 0x80, 0x3f, 0x01, 0x00, 0x00, 0x00, 0x11, 0x00, 0x00, 0x00,
  0x01, 0x00, 0x00, 0x00, 0x10, 0x00, 0x00, 0x00, 0xf6, 0xfb, 0xff, 0xff,
  0x00, 0x00, 0x00, 0x19, 0x01, 0x00, 0x00, 0x00, 0xce, 0xd1, 0xff, 0xff,
  0x10, 0x00, 0x00, 0x00, 0x12, 0x00, 0x00, 0x00, 0x14, 0x00, 0x00, 0x00,
  0x20, 0x00, 0x00, 0x00, 0x02, 0x00, 0x00, 0x00, 0x01, 0x00, 0x00, 0x00,
  0x03, 0x00, 0x00, 0x00, 0x08, 0x00, 0x00, 0x00, 0x49, 0x64, 0x65, 0x6e,
  0x74, 0x69, 0x74, 0x79, 0x00, 0x00, 0x00, 0x00, 0x08, 0xd2, 0xff, 0xff,
  0x00, 0x00, 0x0e, 0x00, 0x18, 0x00, 0x08, 0x00, 0x0c, 0x00, 0x10, 0x00,
  0x07, 0x00, 0x14, 0x00, 0x0e, 0x00, 0x00, 0x00, 0x00, 0x00, 0x00, 0x08,
  0x03, 0x00, 0x00, 0x00, 0x18, 0x00, 0x00, 0x00, 0x0c, 0x00, 0x00, 0x00,
  0x04, 0x00, 0x00, 0x00, 0xdc, 0xd1, 0xff, 0xff, 0x01, 0x00, 0x00, 0x00,
  0x10, 0x00, 0x00, 0x00, 0x03, 0x00, 0x00, 0x00, 0x0f, 0x00, 0x00, 0x00,
  0x05, 0x00, 0x00, 0x00, 0x02, 0x00, 0x00, 0x00, 0x46, 0xd2, 0xff, 0xff,
  0x10, 0x00, 0x00, 0x00, 0x11, 0x00, 0x00, 0x00, 0x14, 0x00, 0x00, 0x00,
  0x30, 0x00, 0x00, 0x00, 0x02, 0x00, 0x00, 0x00, 0x01, 0x00, 0x00, 0x00,
  0x03, 0x00, 0x00, 0x00, 0x1a, 0x00, 0x00, 0x00, 0x73, 0x65, 0x71, 0x75,
  0x65, 0x6e, 0x74, 0x69, 0x61, 0x6c, 0x2f, 0x64, 0x65, 0x6e, 0x73, 0x65,
  0x5f, 0x31, 0x2f, 0x42, 0x69, 0x61, 0x73, 0x41, 0x64, 0x64, 0x00, 0x00,
  0x38, 0xd2, 0xff, 0xff, 0xd6, 0xfd, 0xff, 0xff, 0x00, 0x00, 0x00, 0x08,
  0x03, 0x00, 0x00, 0x00, 0x24, 0x00, 0x00, 0x00, 0x18, 0x00, 0x00, 0x00,
  0x0c, 0x00, 0x00, 0x00, 0x00, 0x00, 0x06, 0x00, 0x08, 0x00, 0x07, 0x00,
  0x06, 0x00, 0x00, 0x00, 0x00, 0x00, 0x00, 0x01, 0x01, 0x00, 0x00, 0x00,
  0x0f, 0x00, 0x00, 0x00, 0x03, 0x00, 0x00, 0x00, 0x0e, 0x00, 0x00, 0x00,
  0x04, 0x00, 0x00, 0x00, 0x01, 0x00, 0x00, 0x00, 0xfe, 0xfc, 0xff, 0xff,
  0x00, 0x00, 0x00, 0x09, 0x01, 0x00, 0x00, 0x00, 0xd6, 0xd2, 0xff, 0xff,
  0x10, 0x00, 0x00, 0x00, 0x10, 0x00, 0x00, 0x00, 0x14, 0x00, 0x00, 0x00,
  0x2c, 0x00, 0x00, 0x00, 0x02, 0x00, 0x00, 0x00, 0x01, 0x00, 0x00, 0x00,
  0x10, 0x00, 0x00, 0x00, 0x15, 0x00, 0x00, 0x00, 0x73, 0x65, 0x71, 0x75,
  0x65, 0x6e, 0x74, 0x69, 0x61, 0x6c, 0x2f, 0x64, 0x65, 0x6e, 0x73, 0x65,
  0x2f, 0x52, 0x65, 0x6c, 0x75, 0x00, 0x00, 0x00, 0x1c, 0xd3, 0xff, 0xff,
  0x00, 0x00, 0x0a, 0x00, 0x10, 0x00, 0x04, 0x00, 0x08, 0x00, 0x0c, 0x00,
  0x0a, 0x00, 0x00, 0x00, 0x02, 0x00, 0x00, 0x00, 0x10, 0x00, 0x00, 0x00,
  0x04, 0x00, 0x00, 0x00, 0x01, 0x00, 0x00, 0x00, 0x0e, 0x00, 0x00, 0x00,
  0x02, 0x00, 0x00, 0x00, 0x0d, 0x00, 0x00, 0x00, 0x03, 0x00, 0x00, 0x00,
  0x7a, 0xfd, 0xff, 0xff, 0x00, 0x00, 0x00, 0x16, 0x01, 0x00, 0x00, 0x00,
  0x52, 0xd3, 0xff, 0xff, 0x10, 0x00, 0x00, 0x00, 0x0f, 0x00, 0x00, 0x00,
  0x14, 0x00, 0x00, 0x00, 0x30, 0x00, 0x00, 0x00, 0x02, 0x00, 0x00, 0x00,
  0x01, 0x00, 0x00, 0x00, 0x70, 0x00, 0x00, 0x00, 0x1a, 0x00, 0x00, 0x00,
  0x73, 0x65, 0x71, 0x75, 0x65, 0x6e, 0x74, 0x69, 0x61, 0x6c, 0x2f, 0x66,
  0x6c, 0x61, 0x74, 0x74, 0x65, 0x6e, 0x2f, 0x52, 0x65, 0x73, 0x68, 0x61,
  0x70, 0x65, 0x00, 0x00, 0x44, 0xd3, 0xff, 0xff, 0xe2, 0xfe, 0xff, 0xff,
  0x00, 0x00, 0x00, 0x05, 0x01, 0x00, 0x00, 0x00, 0x38, 0x00, 0x00, 0x00,
  0x2c, 0x00, 0x00, 0x00, 0x14, 0x00, 0x00, 0x00, 0x00, 0x00, 0x0e, 0x00,
  0x14, 0x00, 0x00, 0x00, 0x10, 0x00, 0x0c, 0x00, 0x08, 0x00, 0x04, 0x00,
  0x0e, 0x00, 0x00, 0x00, 0x03, 0x00, 0x00, 0x00, 0x01, 0x00, 0x00, 0x00,
  0x03, 0x00, 0x00, 0x00, 0x01, 0x00, 0x00, 0x00, 0x01, 0x00, 0x00, 0x00,
  0x0d, 0x00, 0x00, 0x00, 0x01, 0x00, 0x00, 0x00, 0x0c, 0x00, 0x00, 0x00,
  0xe2, 0xd3, 0xff, 0xff, 0x10, 0x00, 0x00, 0x00, 0x0e, 0x00, 0x00, 0x00,
  0x1c, 0x00, 0x00, 0x00, 0x40, 0x00, 0x00, 0x00, 0x04, 0x00, 0x00, 0x00,
  0x01, 0x00, 0x00, 0x00, 0x07, 0x00, 0x00, 0x00, 0x01, 0x00, 0x00, 0x00,
  0x10, 0x00, 0x00, 0x00, 0x22, 0x00, 0x00, 0x00, 0x73, 0x65, 0x71, 0x75,
  0x65, 0x6e, 0x74, 0x69, 0x61, 0x6c, 0x2f, 0x6d, 0x61, 0x78, 0x5f, 0x70,
  0x6f, 0x6f, 0x6c, 0x69, 0x6e, 0x67, 0x32, 0x64, 0x5f, 0x31, 0x2f, 0x4d,
  0x61, 0x78, 0x50, 0x6f, 0x6f, 0x6c, 0x00, 0x00, 0xe4, 0xd3, 0xff, 0xff,
  0xc2, 0xfe, 0xff, 0xff, 0x00, 0x00, 0x00, 0x01, 0x24, 0x00, 0x00, 0x00,
  0x18, 0x00, 0x00, 0x00, 0x04, 0x00, 0x00, 0x00, 0xb4, 0xfe, 0xff, 0xff,
  0x01, 0x00, 0x00, 0x00, 0x01, 0x00, 0x00, 0x00, 0x00, 0x00, 0x00, 0x01,
  0x01, 0x00, 0x00, 0x00, 0x0c, 0x00, 0x00, 0x00, 0x03, 0x00, 0x00, 0x00,
  0x0b, 0x00, 0x00, 0x00, 0x07, 0x00, 0x00, 0x00, 0x09, 0x00, 0x00, 0x00,
  0x72, 0xd4, 0xff, 0xff, 0x10, 0x00, 0x00, 0x00, 0x0d, 0x00, 0x00, 0x00,
  0x1c, 0x00, 0x00, 0x00, 0x2c, 0x00, 0x00, 0x00, 0x04, 0x00, 0x00, 0x00,
  0x01, 0x00, 0x00, 0x00, 0x15, 0x00, 0x00, 0x00, 0x01, 0x00, 0x00, 0x00,
  0x10, 0x00, 0x00, 0x00, 0x0c, 0x00, 0x00, 0x00, 0x74, 0x66, 0x6c, 0x2e,
  0x63, 0x6f, 0x6e, 0x76, 0x5f, 0x32, 0x64, 0x31, 0x00, 0x00, 0x00, 0x00,
  0xb8, 0xd4, 0xff, 0xff, 0x00, 0x00, 0x0e, 0x00, 0x1a, 0x00, 0x08, 0x00,
  0x0c, 0x00, 0x10, 0x00, 0x07, 0x00, 0x14, 0x00, 0x0e, 0x00, 0x00, 0x00,
  0x00, 0x00, 0x00, 0x05, 0x01, 0x00, 0x00, 0x00, 0x3c, 0x00, 0x00, 0x00,
  0x30, 0x00, 0x00, 0x00, 0x14, 0x00, 0x00, 0x00, 0x00, 0x00, 0x0e, 0x00,
  0x18, 0x00, 0x17, 0x00, 0x10, 0x00, 0x0c, 0x00, 0x08, 0x00, 0x04, 0x00,
  0x0e, 0x00, 0x00, 0x00, 0x03, 0x00, 0x00, 0x00, 0x03, 0x00, 0x00, 0x00,
  0x03, 0x00, 0x00, 0x00, 0x03, 0x00, 0x00, 0x00, 0x00, 0x00, 0x00, 0x01,
  0x01, 0x00, 0x00, 0x00, 0x0b, 0x00, 0x00, 0x00, 0x01, 0x00, 0x00, 0x00,
  0x0a, 0x00, 0x00, 0x00, 0x46, 0xff, 0xff, 0xff, 0x00, 0x00, 0x00, 0x11,
  0x01, 0x00, 0x00, 0x00, 0x1e, 0xd5, 0xff, 0xff, 0x10, 0x00, 0x00, 0x00,
  0x0c, 0x00, 0x00, 0x00, 0x1c, 0x00, 0x00, 0x00, 0x40, 0x00, 0x00, 0x00,
  0x04, 0x00, 0x00, 0x00, 0x01, 0x00, 0x00, 0x00, 0x15, 0x00, 0x00, 0x00,
  0x01, 0x00, 0x00, 0x00, 0x08, 0x00, 0x00, 0x00, 0x20, 0x00, 0x00, 0x00,
  0x73, 0x65, 0x71, 0x75, 0x65, 0x6e, 0x74, 0x69, 0x61, 0x6c, 0x2f, 0x6d,
  0x61, 0x78, 0x5f, 0x70, 0x6f, 0x6f, 0x6c, 0x69, 0x6e, 0x67, 0x32, 0x64,
  0x2f, 0x4d, 0x61, 0x78, 0x50, 0x6f, 0x6f, 0x6c, 0x00, 0x00, 0x00, 0x00,
  0x78, 0xd5, 0xff, 0xff, 0x00, 0x00, 0x0e, 0x00, 0x14, 0x00, 0x00, 0x00,
  0x08, 0x00, 0x0c, 0x00, 0x07, 0x00, 0x10, 0x00, 0x0e, 0x00, 0x00, 0x00,
  0x00, 0x00, 0x00, 0x01, 0x30, 0x00, 0x00, 0x00, 0x24, 0x00, 0x00, 0x00,
  0x10, 0x00, 0x00, 0x00, 0x0c, 0x00, 0x10, 0x00, 0x00, 0x00, 0x04, 0x00,
  0x08, 0x00, 0x0f, 0x00, 0x0c, 0x00, 0x00, 0x00, 0x01, 0x00, 0x00, 0x00,
  0x01, 0x00, 0x00, 0x00, 0x00, 0x00, 0x00, 0x01, 0x01, 0x00, 0x00, 0x00,
  0x0a, 0x00, 0x00, 0x00, 0x03, 0x00, 0x00, 0x00, 0x00, 0x00, 0x00, 0x00,
  0x06, 0x00, 0x00, 0x00, 0x08, 0x00, 0x00, 0x00, 0x00, 0x00, 0x0a, 0x00,
  0x0c, 0x00, 0x07, 0x00, 0x00, 0x00, 0x08, 0x00, 0x0a, 0x00, 0x00, 0x00,
  0x00, 0x00, 0x00, 0x03, 0x01, 0x00, 0x00, 0x00, 0xe2, 0xd5, 0xff, 0xff,
  0x10, 0x00, 0x00, 0x00, 0x0b, 0x00, 0x00, 0x00, 0x1c, 0x00, 0x00, 0x00,
  0x28, 0x00, 0x00, 0x00, 0x04, 0x00, 0x00, 0x00, 0x01, 0x00, 0x00, 0x00,
  0x40, 0x00, 0x00, 0x00, 0x03, 0x00, 0x00, 0x00, 0x08, 0x00, 0x00, 0x00,
  0x0b, 0x00, 0x00, 0x00, 0x74, 0x66, 0x6c, 0x2e, 0x63, 0x6f, 0x6e, 0x76,
  0x5f, 0x32, 0x64, 0x00, 0xcc, 0xd5, 0xff, 0xff, 0xc2, 0xd6, 0xff, 0xff,
  0x04, 0x00, 0x00, 0x00, 0x40, 0x00, 0x00, 0x00, 0xfa, 0xf4, 0xd7, 0xbd,
  0x86, 0x49, 0xc1, 0xbd, 0x12, 0x97, 0x6a, 0x3f, 0x9a, 0x96, 0x6b, 0x3d,
  0xb0, 0xfd, 0xfa, 0x3e, 0xa0, 0x94, 0x69, 0xbe, 0x41, 0xaf, 0x3a, 0x3e,
  0x49, 0xf7, 0x68, 0x3f, 0xf5, 0x38, 0xd8, 0xbd, 0x38, 0x1a, 0x71, 0x3f,
  0xbe, 0x31, 0x6e, 0xbd, 0x37, 0x3d, 0x16, 0xbe, 0x1e, 0x81, 0x04, 0xbc,
  0x09, 0xa9, 0x21, 0x3e, 0x4c, 0x4d, 0x24, 0xbb, 0xe2, 0xdb, 0x3f, 0xbe,
  0x6a, 0xd6, 0xff, 0xff, 0x10, 0x00, 0x00, 0x00, 0x0a, 0x00, 0x00, 0x00,
  0x10, 0x00, 0x00, 0x00, 0x20, 0x00, 0x00, 0x00, 0x01, 0x00, 0x00, 0x00,
  0x10, 0x00, 0x00, 0x00, 0x0d, 0x00, 0x00, 0x00, 0x73, 0x74, 0x64, 0x2e,
  0x63, 0x6f, 0x6e, 0x73, 0x74, 0x61, 0x6e, 0x74, 0x31, 0x00, 0x00, 0x00,
  0x4c, 0xd6, 0xff, 0xff, 0x42, 0xd7, 0xff, 0xff, 0x04, 0x00, 0x00, 0x00,
  0x20, 0x00, 0x00, 0x00, 0x41, 0xe3, 0x82, 0xbd, 0x6a, 0x03, 0xa2, 0xbd,
  0x05, 0x20, 0xbb, 0xbb, 0x42, 0xc4, 0x31, 0x3d, 0xe2, 0xd5, 0x02, 0xb9,
  0x35, 0xec, 0x6a, 0xbb, 0x42, 0x12, 0x1f, 0xbc, 0x4c, 0x44, 0x69, 0x3f,
  0xca, 0xd6, 0xff, 0xff, 0x10, 0x00, 0x00, 0x00, 0x09, 0x00, 0x00, 0x00,
  0x10, 0x00, 0x00, 0x00, 0x20, 0x00, 0x00, 0x00, 0x01, 0x00, 0x00, 0x00,
  0x08, 0x00, 0x00, 0x00, 0x0c, 0x00, 0x00, 0x00, 0x73, 0x74, 0x64, 0x2e,
  0x63, 0x6f, 0x6e, 0x73, 0x74, 0x61, 0x6e, 0x74, 0x00, 0x00, 0x00, 0x00,
  0xac, 0xd6, 0xff, 0xff, 0xa2, 0xd7, 0xff, 0xff, 0x04, 0x00, 0x00, 0x00,
  0x00, 0x08, 0x00, 0x00, 0xa4, 0x99, 0x7e, 0x3e, 0xa2, 0xff, 0xa3, 0x3c,
  0xde, 0xa7, 0x4d, 0x3e, 0xc2, 0x7c, 0xf4, 0xbd, 0x45, 0xaa, 0x5e, 0x3e,
  0x86, 0x2f, 0x47, 0x3e, 0x9f, 0x52, 0xb6, 0x3d, 0x3e, 0x74, 0xe7, 0x3d,
  0xe2, 0x6c, 0x8e, 0x3c, 0x3c, 0x1d, 0x76, 0xbd, 0x12, 0x09, 0x35, 0xbe,
  0x0d, 0xf3, 0x71, 0x3e, 0x19, 0xba, 0x5e, 0xbe, 0x4d, 0x44, 0x9d, 0x3d,
  0x15, 0x2f, 0x02, 0xbd, 0x56, 0x2e, 0x4e, 0xbe, 0x67, 0xdc, 0x4a, 0x3e,
  0x1e, 0x54, 0x89, 0x3d, 0x53, 0x3f, 0x54, 0x3e, 0x85, 0xbf, 0xca, 0x3d,
  0x67, 0xcc, 0x35, 0x3e, 0x61, 0xe3, 0x49, 0x3c, 0xf2, 0x0c, 0x7d, 0x3d,
  0x8a, 0x44, 0x93, 0x3e, 0x70, 0xae, 0x0e, 0xbb, 0x3e, 0x9f, 0xe9, 0x3d,
  0x71, 0xa8, 0x05, 0xbe, 0xad, 0xe9, 0x97, 0xbd, 0x7b, 0xb3, 0x6d, 0x3e,
  0xd8, 0x6c, 0x9f, 0xbd, 0x35, 0x6c, 0xaf, 0xbc, 0x27, 0x3a, 0x35, 0xbe,
  0xca, 0x51, 0x3a, 0xbe, 0x01, 0x26, 0xb9, 0x3d, 0xa0, 0xe4, 0x14, 0xbd,
  0xa3, 0x1a, 0x51, 0xbe, 0x14, 0xe0, 0x47, 0x3e, 0xfe, 0xe3, 0x68, 0x3e,
  0x74, 0x10, 0x41, 0xbe, 0x79, 0x0f, 0x8f, 0xbe, 0xe4, 0xed, 0x35, 0xbe,
  0xc3, 0x2c, 0xc7, 0xbd, 0x52, 0x87, 0x6d, 0xbd, 0x06, 0x0d, 0x79, 0x3e,
  0x90, 0xf5, 0x31, 0x3e, 0x70, 0x83, 0x06, 0xbe, 0x08, 0x73, 0x82, 0x3d,
  0x3a, 0x07, 0xce, 0xbd, 0x9c, 0x55, 0x97, 0x3b, 0x41, 0x21, 0x9c, 0x3b,
  0x10, 0x30, 0x4c, 0x3d, 0x4d, 0x6b, 0x1f, 0x3e, 0x2e, 0x2c, 0xb3, 0xbd,
  0xaa, 0xdc, 0x86, 0x3d, 0xbf, 0xe2, 0xcd, 0x3d, 0xd4, 0xdc, 0x2c, 0xbd,
  0x68, 0x3c, 0x37, 0x3e, 0xfe, 0x55, 0xa4, 0x3d, 0xf0, 0x95, 0x84, 0x3c,
  0xb7, 0x98, 0x80, 0xbd, 0xc3, 0x67, 0x76, 0x3e, 0x3e, 0xd9, 0x11, 0x3e,
  0xa7, 0x14, 0xcc, 0xbd, 0x3f, 0x94, 0x05, 0x3e, 0x4a, 0x67, 0xa9, 0xbd,
  0x2b, 0x8e, 0xee, 0x3c, 0xd8, 0x7a, 0x55, 0xbe, 0xbf, 0x67, 0x9a, 0xbe,
  0x78, 0x93, 0x95, 0xbd, 0x4c, 0x93, 0xe9, 0xbd, 0x65, 0x59, 0x6f, 0x3d,
  0xe6, 0xe9, 0x41, 0xbe, 0xc5, 0x00, 0x8e, 0xbc, 0xa3, 0x59, 0x67, 0x3d,
  0x2f, 0x43, 0xb8, 0xbd, 0xf4, 0x7b, 0x29, 0xbe, 0x8a, 0x2b, 0x37, 0xbd,
  0xae, 0x68, 0xbf, 0x3c, 0x74, 0x22, 0xff, 0xbc, 0x5c, 0x6e, 0x1f, 0x3e,
  0x8c, 0xf3, 0xf2, 0x3d, 0x09, 0xff, 0x16, 0x3d, 0x6f, 0x58, 0xa2, 0xbd,
  0x8b, 0x73, 0x09, 0xbe, 0xb1, 0x6b, 0x54, 0xbe, 0x0a, 0x7d, 0xcb, 0xbc,
  0x46, 0xa3, 0x10, 0xbd, 0x11, 0x73, 0x2a, 0xbc, 0xbd, 0x72, 0x8c, 0x3d,
  0x1f, 0x30, 0xe9, 0x3c, 0x8f, 0x9f, 0x71, 0x3d, 0x64, 0x53, 0x96, 0xbe,
  0x7d, 0xdd, 0x71, 0xbe, 0x6e, 0x43, 0x1e, 0xbd, 0x53, 0x03, 0x34, 0xbe,
  0xee, 0x21, 0x5c, 0x3e, 0x91, 0xb9, 0x09, 0xbe, 0xa5, 0xfa, 0x4e, 0x3d,
  0xd6, 0xc7, 0x0b, 0x3e, 0xf9, 0xdd, 0x3a, 0xbe, 0xcb, 0x1d, 0x0b, 0x3e,
  0x61, 0x7c, 0x7a, 0xbd, 0xd3, 0xed, 0x55, 0x3e, 0x7d, 0x19, 0x8a, 0x3e,
  0x35, 0x55, 0xfb, 0xbd, 0x1b, 0xc2, 0x4f, 0x3e, 0xa8, 0x08, 0xd8, 0xbd,
  0xc8, 0x28, 0x9b, 0x3d, 0xc8, 0x82, 0x9b, 0x3d, 0x3f, 0x32, 0x02, 0xbe,
  0xa5, 0x2c, 0x79, 0xbe, 0x97, 0x8c, 0x32, 0x3e, 0x2b, 0x38, 0xbc, 0xbd,
  0x53, 0x94, 0x59, 0xbd, 0xbf, 0xd3, 0x66, 0x3e, 0xff, 0xb2, 0xd0, 0xbc,
  0x8d, 0x14, 0x66, 0x3d, 0x80, 0x20, 0x69, 0xbc, 0x3a, 0x00, 0xde, 0x3d,
  0x75, 0x1a, 0xad, 0x3d, 0x6d, 0x75, 0x84, 0xbd, 0x74, 0x39, 0xe5, 0xbd,
  0xbd, 0x7a, 0x23, 0xbe, 0xa4, 0x68, 0x25, 0x3e, 0x49, 0x4b, 0x4e, 0xbe,
  0x2b, 0xb6, 0x19, 0x3e, 0x97, 0x4f, 0x7a, 0xbe, 0x5a, 0x46, 0x32, 0x3d,
  0x45, 0x3e, 0x81, 0xbe, 0x4f, 0x34, 0x39, 0xbe, 0x52, 0x28, 0x34, 0xbc,
  0x75, 0x9f, 0x82, 0xbe, 0x85, 0x2c, 0x27, 0x3d, 0x2d, 0x5e, 0x61, 0xbe,
  0xab, 0xbf, 0xc8, 0x3c, 0xd8, 0x95, 0x46, 0x3e, 0x07, 0x75, 0xb7, 0x3d,
  0x64, 0xfa, 0x73, 0xbe, 0x5e, 0x25, 0x1e, 0x3d, 0x58, 0x65, 0xe7, 0xbd,
  0xd7, 0x3c, 0x32, 0xbe, 0x7c, 0x65, 0x46, 0x3d, 0x8d, 0x47, 0x23, 0xbe,
  0xf0, 0xe4, 0x6d, 0x3e, 0xe0, 0x9a, 0x18, 0xbd, 0x7c, 0xbe, 0x3c, 0xbe,
  0x29, 0x7b, 0x12, 0xbe, 0x4d, 0x68, 0x2d, 0xbd, 0x96, 0x1d, 0x87, 0x3d,
  0x42, 0x3c, 0xea, 0xbd, 0x6b, 0x5f, 0x13, 0xbe, 0xc0, 0x84, 0x90, 0xbd,
  0x32, 0x24, 0x23, 0x3e, 0xfa, 0xf0, 0xf5, 0xbd, 0x88, 0xc8, 0x9c, 0x3d,
  0xe8, 0xac, 0xb2, 0x3d, 0x9c, 0xcd, 0xe5, 0x3d, 0xc0, 0xc7, 0xd7, 0xbd,
  0x07, 0xf0, 0xfd, 0x3d, 0xc7, 0x1f, 0x7a, 0xbc, 0x7c, 0x4d, 0xaa, 0xbc,
  0x69, 0x16, 0x17, 0x3e, 0x46, 0x30, 0x65, 0xbe, 0x36, 0xfc, 0x3c, 0xbe,
  0xc9, 0x4f, 0x09, 0x3e, 0xc5, 0xb1, 0xdc, 0xbc, 0x6e, 0x8f, 0x90, 0x3d,
  0x2f, 0x3a, 0x7f, 0xbe, 0xf0, 0x62, 0x37, 0x3e, 0xb0, 0x56, 0x72, 0x3e,
  0x2a, 0xae, 0x04, 0x3e, 0xcc, 0x18, 0xa6, 0x3b, 0x69, 0x07, 0x50, 0x3e,
  0x1e, 0xdc, 0xf9, 0x3c, 0x83, 0x56, 0x2c, 0x3d, 0x51, 0x10, 0x95, 0x3b,
  0x26, 0xdd, 0x48, 0xbd, 0x1e, 0xdf, 0x80, 0x3e, 0x87, 0xb8, 0xe7, 0x3d,
  0xea, 0xc9, 0x94, 0x3d, 0xff, 0x4f, 0xb0, 0xbd, 0xc5, 0xe4, 0x97, 0x3e,
  0xe8, 0x03, 0xb6, 0xbc, 0xbc, 0x6d, 0x78, 0x3e, 0xdb, 0x58, 0x36, 0xbe,
  0xd5, 0x17, 0x3e, 0x3e, 0x60, 0xd5, 0x27, 0xbc, 0x27, 0x9b, 0xf9, 0xbb,
  0x10, 0x56, 0xae, 0x3e, 0x0e, 0x7d, 0x92, 0x3d, 0xf1, 0x98, 0x63, 0x3d,
  0x32, 0xce, 0xef, 0x3d, 0x0f, 0x40, 0x1a, 0xbe, 0x3f, 0xf9, 0x97, 0x3d,
  0xdd, 0xe5, 0xe2, 0x3d, 0xc7, 0x48, 0xc1, 0x3e, 0x8d, 0x4d, 0xcc, 0x3c,
  0xa6, 0x2f, 0x3c, 0xbe, 0x32, 0x93, 0x14, 0x3e, 0x3d, 0x0b, 0xee, 0x3d,
  0xac, 0xfd, 0x22, 0xbd, 0x7f, 0xe8, 0x85, 0x3d, 0x55, 0x7d, 0x1d, 0xbe,
  0x38, 0x90, 0xd6, 0xbd, 0x88, 0x4a, 0xed, 0x3d, 0xc0, 0xa6, 0x84, 0xbe,
  0x76, 0x19, 0x4e, 0xbd, 0x47, 0x16, 0x24, 0x3d, 0x39, 0x66, 0x6a, 0xbe,
  0xf3, 0x45, 0x59, 0x3d, 0x9b, 0xe4, 0x16, 0x3e, 0x22, 0x61, 0x97, 0x3c,
  0x09, 0x86, 0xe2, 0xbd, 0x3d, 0xb5, 0x32, 0x3e, 0x1f, 0xa4, 0x12, 0xbe,
  0xdd, 0xbf, 0x9b, 0x3e, 0x6e, 0x8f, 0x1f, 0xbe, 0xbe, 0x7b, 0x07, 0x3e,
  0xc0, 0xae, 0x20, 0xbe, 0x49, 0x71, 0xd4, 0xbd, 0x22, 0x90, 0xcf, 0xbd,
  0xa1, 0x9d, 0x23, 0xbd, 0xa8, 0xca, 0x8c, 0x3c, 0x8b, 0x33, 0x75, 0xbd,
  0xae, 0xae, 0x0e, 0x3e, 0xd5, 0x2e, 0xed, 0xbd, 0xb3, 0x10, 0x08, 0xbc,
  0x9d, 0x02, 0x82, 0xbe, 0xc3, 0x88, 0xa9, 0x3b, 0xe4, 0x28, 0x00, 0x3e,
  0xe4, 0x49, 0xd8, 0xbd, 0x55, 0xcd, 0xc3, 0x3c, 0x3b, 0x5d, 0x75, 0xbd,
  0x79, 0xe9, 0x1d, 0xbd, 0xee, 0x66, 0x61, 0xbe, 0xf2, 0x6d, 0x12, 0xbe,
  0xf1, 0xdf, 0x3e, 0xbb, 0xb0, 0x21, 0xdd, 0x3d, 0xe8, 0xfc, 0xa0, 0xbd,
  0xd9, 0xc7, 0x82, 0x3e, 0x0c, 0xb5, 0x66, 0x3d, 0xbc, 0x00, 0x84, 0xbd,
  0x18, 0x8e, 0xe4, 0xbd, 0x1b, 0x20, 0xe4, 0xbd, 0x62, 0x8d, 0x57, 0xbe,
  0xea, 0xc9, 0x38, 0x3d, 0xa2, 0x4b, 0x9b, 0x3a, 0x4d, 0xe4, 0x6a, 0x3e,
  0x64, 0xe1, 0x49, 0xbe, 0x98, 0xaf, 0x47, 0xbe, 0xbb, 0x20, 0x78, 0xbe,
  0x79, 0x4d, 0x25, 0x3e, 0xf3, 0x71, 0x45, 0xbe, 0x8b, 0xde, 0x28, 0xbb,
  0xcb, 0x43, 0x5c, 0xbe, 0x1f, 0x15, 0xb2, 0x3e, 0x95, 0x11, 0x24, 0xbc,
  0x4e, 0x8f, 0x8c, 0x3e, 0xa5, 0x27, 0x80, 0x3e, 0x7b, 0xf6, 0x95, 0x3e,
  0xdb, 0xa8, 0x98, 0x3e, 0xfb, 0x63, 0x14, 0x3e, 0x2a, 0xd7, 0x01, 0x3e,
  0x3a, 0xa7, 0x8d, 0x3e, 0xd0, 0x02, 0x63, 0x3e, 0xfb, 0xf4, 0x85, 0x3e,
  0x31, 0x88, 0x08, 0xbd, 0x9b, 0xbc, 0x94, 0x3d, 0x55, 0x55, 0x9a, 0x3d,
  0x50, 0x23, 0xb5, 0x3e, 0x9c, 0x47, 0xfc, 0xbd, 0xeb, 0x91, 0x3d, 0x3e,
  0xf2, 0xc6, 0xfe, 0x3d, 0x50, 0xac, 0x40, 0x3d, 0xde, 0xb0, 0x0c, 0xbe,
  0x6b, 0x92, 0xcd, 0x3b, 0xd9, 0x7a, 0x88, 0x3e, 0xf7, 0x52, 0x9e, 0x3e,
  0x29, 0xbd, 0x2c, 0xbc, 0x7a, 0x4e, 0x45, 0x3d, 0xe1, 0xb2, 0x4f, 0x3e,
  0x18, 0x69, 0x34, 0x3d, 0xaa, 0xfa, 0x8c, 0x3e, 0xd3, 0x31, 0x45, 0x3c,
  0x97, 0xe4, 0x1b, 0x3d, 0xf3, 0xaf, 0xbc, 0x3e, 0x2a, 0x60, 0x9a, 0x3e,
  0x61, 0xe3, 0x54, 0x3e, 0x31, 0x08, 0x01, 0xbe, 0xac, 0xa7, 0x45, 0xbd,
  0xf6, 0xfb, 0xeb, 0x3d, 0x7e, 0xf0, 0x64, 0xbe, 0x4f, 0x8b, 0x8b, 0xbd,
  0x11, 0x54, 0x72, 0xbd, 0x74, 0x77, 0x87, 0xbe, 0xfa, 0xac, 0x66, 0x3e,
  0x0c, 0x44, 0x8f, 0xbd, 0x95, 0xa1, 0x79, 0x3d, 0xa9, 0x41, 0x8d, 0xbc,
  0x4a, 0x87, 0x2f, 0x3e, 0x54, 0xa6, 0x32, 0x3e, 0x7e, 0x90, 0xf2, 0xbd,
  0x52, 0x72, 0x45, 0x3b, 0x39, 0xae, 0x46, 0x3e, 0x32, 0x04, 0x54, 0xbe,
  0x3b, 0xe6, 0x4e, 0x3e, 0xc3, 0x9c, 0x8e, 0xbe, 0x04, 0x51, 0xff, 0xbd,
  0x8f, 0x37, 0xcd, 0xbd, 0x17, 0x7b, 0xfe, 0xbd, 0x8d, 0x36, 0x93, 0xbe,
  0xa3, 0x15, 0x85, 0xbd, 0x6c, 0x85, 0x0e, 0x3e, 0xc4, 0x20, 0xf0, 0x3d,
  0x49, 0xbd, 0x72, 0xbe, 0xed, 0xd2, 0xe2, 0x3c, 0x79, 0x8d, 0x9b, 0xbe,
  0x8f, 0xec, 0x89, 0xbe, 0x6d, 0xd6, 0xf9, 0xbd, 0xb3, 0xfc, 0xbd, 0x3e,
  0xa8, 0x4d, 0xee, 0xbc, 0x04, 0x0b, 0x1f, 0xbe, 0xae, 0x54, 0x19, 0xbe,
  0x54, 0xb3, 0x3d, 0x3e, 0xb6, 0xfd, 0x30, 0x3e, 0xda, 0x18, 0x45, 0xbe,
  0x00, 0xe7, 0x08, 0x3d, 0xdc, 0x1f, 0x10, 0xbe, 0xed, 0xbb, 0x2d, 0x3e,
  0x80, 0xff, 0x38, 0xbe, 0x41, 0x27, 0xa2, 0x3d, 0xb5, 0x79, 0x1c, 0xbe,
  0x76, 0x80, 0x42, 0xbe, 0x21, 0x9a, 0x82, 0xbe, 0x23, 0x98, 0xdc, 0x3d,
  0x6a, 0xfa, 0x81, 0xbe, 0x3d, 0xea, 0x1f, 0xbd, 0xe9, 0x12, 0x78, 0xbe,
  0xc7, 0x2d, 0xab, 0x3b, 0xdb, 0xfe, 0x7b, 0xbd, 0x31, 0x90, 0x07, 0x3b,
  0x23, 0x5b, 0x14, 0xbd, 0x05, 0x3b, 0x25, 0x3e, 0x1e, 0x29, 0x6c, 0xbe,
  0xb2, 0x89, 0x71, 0xbe, 0x54, 0x8c, 0x6a, 0xbe, 0x3d, 0x22, 0xae, 0xbd,
  0xc0, 0x8f, 0x6f, 0xbe, 0x6a, 0xdd, 0xa9, 0xbd, 0x9e, 0xc1, 0xf3, 0xbc,
  0x00, 0x06, 0x78, 0xbe, 0xd6, 0x2e, 0x38, 0xbe, 0x03, 0xb8, 0x16, 0xbe,
  0xbc, 0xeb, 0x6d, 0x3e, 0x7b, 0xd9, 0xdf, 0x3d, 0x49, 0x9f, 0xcf, 0x3d,
  0x9b, 0x08, 0xb8, 0x3e, 0x09, 0x4c, 0xe5, 0x3d, 0x53, 0xa3, 0xf5, 0xbd,
  0x6c, 0x94, 0x11, 0xbe, 0x61, 0x56, 0x0f, 0x3e, 0x43, 0xde, 0x2f, 0xbe,
  0x2b, 0xb0, 0xda, 0x3d, 0x2b, 0x44, 0x41, 0x3e, 0xa7, 0x2f, 0x18, 0x3e,
  0x34, 0x97, 0x07, 0x3d, 0xfd, 0x84, 0x2f, 0x3e, 0x9d, 0x8d, 0x79, 0x3d,
  0x68, 0xb9, 0xb4, 0x3d, 0x66, 0x2f, 0x1a, 0x3e, 0xfd, 0x4c, 0x6b, 0xbd,
  0x0f, 0xcc, 0x9f, 0x3e, 0xa7, 0x3e, 0x61, 0x3e, 0x57, 0x12, 0x4a, 0x3d,
  0xee, 0x5b, 0x02, 0x3e, 0x88, 0xd3, 0x76, 0xbd, 0xb6, 0x24, 0x3b, 0x3d,
  0x72, 0x9c, 0xae, 0x3d, 0x85, 0xcf, 0x07, 0xbe, 0x77, 0x98, 0xaa, 0x3e,
  0xae, 0xc6, 0x1c, 0x3e, 0xd2, 0xda, 0x19, 0x3e, 0x54, 0x62, 0x9e, 0x3d,
  0xe8, 0x84, 0xa2, 0x3e, 0x2d, 0xa5, 0x7a, 0xbd, 0xd8, 0x37, 0x82, 0x3e,
  0x74, 0x8b, 0x8f, 0x3d, 0x1c, 0xe1, 0x64, 0xbe, 0xc4, 0x38, 0x1b, 0xbe,
  0x1c, 0x4f, 0x75, 0x3e, 0x47, 0x01, 0x71, 0x3e, 0xb2, 0x46, 0x87, 0xbd,
  0x04, 0x69, 0x2e, 0x3d, 0xbb, 0xd1, 0xec, 0x3c, 0x70, 0x3c, 0x59, 0x3e,
  0x4a, 0xae, 0x0b, 0xbe, 0x67, 0xf8, 0x06, 0xbe, 0x21, 0x6f, 0x2c, 0x3e,
  0x98, 0x8d, 0x57, 0xbe, 0x0a, 0xbf, 0x0c, 0xbd, 0xfd, 0xa2, 0x81, 0x3d,
  0x23, 0x9d, 0xa9, 0x3d, 0x56, 0xc6, 0xc9, 0x3b, 0xc2, 0xcb, 0x2b, 0xbe,
  0x54, 0xd7, 0x4b, 0xbe, 0x95, 0x4c, 0x5b, 0xbe, 0x00, 0xe5, 0x1b, 0xbd,
  0x9e, 0xd4, 0x7d, 0xbe, 0x37, 0xac, 0xea, 0xbd, 0x87, 0x08, 0x61, 0xbd,
  0xbf, 0x5a, 0x84, 0xbe, 0x8b, 0x27, 0x86, 0x3d, 0xc1, 0xc7, 0x63, 0x3e,
  0x45, 0xfc, 0x1e, 0x3e, 0x31, 0xf1, 0x5b, 0xbe, 0xd9, 0x10, 0x6c, 0xbe,
  0x72, 0xdd, 0x78, 0xbd, 0x4b, 0x7d, 0xf6, 0xbd, 0x48, 0x9e, 0x81, 0xbe,
  0xba, 0x3a, 0xab, 0xbd, 0x07, 0x31, 0x42, 0x3d, 0x1b, 0x0b, 0xb8, 0x3d,
  0xda, 0xd1, 0x3d, 0xbe, 0x43, 0x4a, 0x81, 0xbe, 0x40, 0x95, 0xbf, 0xbc,
  0xe1, 0xca, 0xe6, 0x3d, 0x3f, 0xf5, 0xfe, 0xbd, 0xba, 0xe6, 0x78, 0xbd,
  0x96, 0x8d, 0x86, 0xbe, 0x5e, 0x7f, 0x93, 0xbe, 0x14, 0x1c, 0xd4, 0xbc,
  0x49, 0x8b, 0xe3, 0x3d, 0x13, 0x1c, 0x29, 0xbb, 0xad, 0xc0, 0x0f, 0x3e,
  0x84, 0x93, 0x99, 0xbd, 0xf8, 0x2f, 0x8f, 0x3d, 0x79, 0x2a, 0x62, 0xbd,
  0x30, 0x48, 0x68, 0xbe, 0x6f, 0x89, 0x55, 0xbe, 0xcf, 0x2c, 0x05, 0x3e,
  0xd5, 0x73, 0x6e, 0x3e, 0xd0, 0x73, 0xd3, 0x3d, 0x97, 0xe6, 0xa1, 0xbe,
  0xc9, 0x22, 0x97, 0xbe, 0x29, 0xa3, 0x8e, 0x3d, 0x27, 0x0e, 0xb4, 0xbe,
  0x9a, 0xf8, 0x9f, 0x3d, 0x45, 0xef, 0x8b, 0x3d, 0x67, 0xb5, 0x39, 0x3e,
  0x3b, 0xf3, 0x48, 0xbe, 0x97, 0xea, 0x73, 0xbd, 0xcf, 0x24, 0x61, 0x3d,
  0x19, 0xd8, 0x1b, 0xbd, 0xe1, 0x1b, 0xaa, 0xbd, 0xdc, 0x45, 0x79, 0xbe,
  0x82, 0x6e, 0x86, 0xbe, 0xce, 0x21, 0x40, 0x3e, 0x59, 0x25, 0x82, 0xbe,
  0x09, 0x4d, 0x51, 0xbe, 0xda, 0x2d, 0xd7, 0xbd, 0xbd, 0xdf, 0x49, 0xbe,
  0xdf, 0xd2, 0x33, 0xbe, 0xae, 0x11, 0xf0, 0x3c, 0xc5, 0x50, 0x6d, 0xbe,
  0x39, 0xcc, 0xc0, 0x3d, 0xbc, 0xfb, 0x2e, 0x3e, 0xdd, 0xb5, 0xe6, 0x3d,
  0xb5, 0xef, 0x2b, 0x3d, 0x32, 0xd6, 0x8f, 0xbe, 0xdd, 0x04, 0x15, 0x3e,
  0x00, 0x09, 0x83, 0xbd, 0x9e, 0x71, 0x43, 0xbd, 0xad, 0xc3, 0x9b, 0x3d,
  0xaf, 0x23, 0x25, 0x3e, 0xee, 0x3b, 0xdd, 0xbc, 0xd0, 0x35, 0x84, 0xbe,
  0x84, 0x80, 0x17, 0x3e, 0x42, 0x1a, 0x3b, 0x3e, 0xf0, 0x92, 0x16, 0xbc,
  0x31, 0x5e, 0xb7, 0xbb, 0xdb, 0xb0, 0xbd, 0x3e, 0x34, 0xbd, 0x65, 0xbe,
  0xc9, 0x4a, 0x9d, 0x3e, 0x75, 0x10, 0x16, 0xbc, 0x2d, 0x06, 0x8c, 0x3e,
  0xe4, 0x67, 0x42, 0x3d, 0x45, 0xd7, 0xe0, 0x3a, 0xf7, 0x17, 0x36, 0x3d,
  0xed, 0x5c, 0x17, 0x3e, 0xc0, 0xb3, 0x1b, 0xbe, 0xb0, 0xea, 0x28, 0x3e,
  0x6d, 0x56, 0xa2, 0x3e, 0x7d, 0x45, 0x63, 0x3e, 0x2f, 0x55, 0xbf, 0xbc,
  0x9e, 0x4d, 0x7e, 0x3d, 0x7f, 0x42, 0x6a, 0x3e, 0xee, 0x6a, 0x3b, 0xbd,
  0x6c, 0x0a, 0x4a, 0x3e, 0xcb, 0x20, 0x54, 0xbd, 0x55, 0x92, 0xba, 0x3b,
  0x74, 0xe0, 0x25, 0x3d, 0xa8, 0xe6, 0x6a, 0x3e, 0x20, 0x6a, 0x21, 0xbd,
  0x4a, 0x22, 0x49, 0x3e, 0xcf, 0x6b, 0xdb, 0x3c, 0x93, 0x9b, 0xb7, 0xbd,
  0xdc, 0x3f, 0xf3, 0xbd, 0x4a, 0x2d, 0xa2, 0x3d, 0xb0, 0xe2, 0x45, 0x3e,
  0x1c, 0xbb, 0x43, 0x3e, 0xbd, 0x2c, 0x5a, 0x3e, 0x02, 0xc2, 0x86, 0x3d,
  0x0a, 0xdf, 0xff, 0xff, 0x10, 0x00, 0x00, 0x00, 0x08, 0x00, 0x00, 0x00,
  0x1c, 0x00, 0x00, 0x00, 0x38, 0x00, 0x00, 0x00, 0x04, 0x00, 0x00, 0x00,
  0x10, 0x00, 0x00, 0x00, 0x04, 0x00, 0x00, 0x00, 0x01, 0x00, 0x00, 0x00,
  0x08, 0x00, 0x00, 0x00, 0x1a, 0x00, 0x00, 0x00, 0x73, 0x65, 0x71, 0x75,
  0x65, 0x6e, 0x74, 0x69, 0x61, 0x6c, 0x2f, 0x63, 0x6f, 0x6e, 0x76, 0x32,
  0x64, 0x5f, 0x31, 0x2f, 0x43, 0x6f, 0x6e, 0x76, 0x32, 0x44, 0x00, 0x00,
  0x04, 0xdf, 0xff, 0xff, 0xfa, 0xdf, 0xff, 0xff, 0x04, 0x00, 0x00, 0x00,
  0x80, 0x01, 0x00, 0x00, 0xd9, 0xc1, 0x1c, 0x3e, 0x03, 0x12, 0xe7, 0x3d,
  0x67, 0xd1, 0xb4, 0x3c, 0x5e, 0xb8, 0x96, 0x3e, 0x53, 0xb4, 0x4c, 0xbd,
  0x52, 0x6e, 0x2d, 0x3e, 0x7e, 0xc6, 0xac, 0xbd, 0xef, 0xab, 0x4a, 0x3e,
  0xa3, 0x11, 0xeb, 0xbd, 0x78, 0xf3, 0xb4, 0xbd, 0x60, 0xef, 0x4d, 0xbd,
  0x78, 0xb6, 0xaa, 0x3d, 0x8a, 0x3a, 0xdc, 0x3d, 0x86, 0x8c, 0x07, 0x3e,
  0xe7, 0x2e, 0x0d, 0x3d, 0xef, 0x40, 0xb5, 0x3d, 0x40, 0xc9, 0xcf, 0x3d,
  0x39, 0x50, 0x89, 0xba, 0x10, 0xa7, 0x00, 0x3d, 0xbe, 0xec, 0xa3, 0xbd,
  0xd7, 0x3b, 0x5c, 0x3d, 0x79, 0x48, 0xa2, 0x3d, 0xc3, 0xf9, 0x78, 0x3c,
  0xff, 0x9d, 0xad, 0x3d, 0x13, 0x90, 0x3c, 0xbd, 0x96, 0x35, 0x66, 0x3e,
  0x70, 0x30, 0x76, 0x3e, 0xb1, 0xcc, 0x5c, 0x3e, 0xd2, 0x35, 0xec, 0x3d,
  0x66, 0x99, 0x2a, 0xbe, 0x9c, 0xae, 0x10, 0x3e, 0x11, 0xb8, 0x4b, 0x3e,
  0xca, 0xbc, 0x49, 0xbe, 0x88, 0xa6, 0x0b, 0xbe, 0x1b, 0x41, 0xef, 0xbd,
  0xc1, 0xa9, 0xea, 0xbd, 0x22, 0xe5, 0xf2, 0xbc, 0x5d, 0xc9, 0x8e, 0x3e,
  0xe3, 0x41, 0x79, 0xbe, 0x60, 0xb5, 0x25, 0x3d, 0x68, 0x93, 0x2e, 0x3e,
  0x78, 0xeb, 0x96, 0xbc, 0x19, 0xb2, 0xfb, 0x3d, 0x68, 0x41, 0x3c, 0xbe,
  0x77, 0x95, 0x11, 0xbe, 0x56, 0x00, 0x23, 0x39, 0xe8, 0x29, 0x0c, 0x3e,
  0x7a, 0x2c, 0x9a, 0xbc, 0x92, 0x59, 0x78, 0xbe, 0xc5, 0xa0, 0xc5, 0x3d,
  0xdd, 0xc6, 0xb1, 0x3c, 0xc5, 0x89, 0xa2, 0x3c, 0xf1, 0xa8, 0x40, 0x3d,
  0xfa, 0x82, 0x2c, 0x3e, 0x63, 0x88, 0x1d, 0xbe, 0x2e, 0xf2, 0xaf, 0xbd,
  0x23, 0xdd, 0x57, 0x3e, 0xcb, 0x17, 0x3e, 0xbe, 0x74, 0x85, 0xe7, 0xbd,
  0x3e, 0x8f, 0xec, 0x3d, 0x04, 0xa6, 0x86, 0xbd, 0x24, 0x41, 0xef, 0x3c,
  0x3a, 0x0a, 0x30, 0xbe, 0x4a, 0x26, 0x49, 0x3e, 0xe4, 0x30, 0x9d, 0xbd,
  0xbc, 0xc4, 0x01, 0x3e, 0xe0, 0x29, 0xa4, 0x3d, 0xb8, 0x70, 0x82, 0x3e,
  0x93, 0xdc, 0x58, 0x3b, 0x98, 0x4f, 0x37, 0x3d, 0x70, 0x83, 0x07, 0xbe,
  0x98, 0x50, 0x68, 0xbe, 0x09, 0x61, 0x92, 0xbe, 0x8c, 0x90, 0x9c, 0x3e,
  0xcd, 0x03, 0x81, 0x3e, 0xb1, 0xd2, 0xfa, 0x39, 0x01, 0xd3, 0x3c, 0x3e,
  0x47, 0x66, 0x29, 0x3e, 0x63, 0x22, 0x36, 0xbe, 0xdf, 0x05, 0x58, 0x3e,
  0x7f, 0x83, 0x80, 0x3e, 0x10, 0xd7, 0x19, 0x3e, 0x36, 0x16, 0x09, 0x3e,
  0x80, 0xbf, 0xb8, 0xbd, 0xcb, 0xdc, 0x6e, 0x3d, 0xcb, 0x11, 0x46, 0x3e,
  0x86, 0xa0, 0x0e, 0x3d, 0x2f, 0x57, 0x36, 0x3c, 0x0e, 0xbc, 0x72, 0xbd,
  0xda, 0x36, 0xdc, 0xbd, 0xed, 0xb9, 0x78, 0x3e, 0x40, 0x25, 0xee, 0xbc,
  0xe1, 0xa1, 0x55, 0xbb, 0xbb, 0x57, 0x9b, 0xbd, 0x08, 0x3b, 0x70, 0x3e,
  0x10, 0x54, 0x58, 0xbc, 0xe2, 0xe0, 0xff, 0xff, 0x10, 0x00, 0x00, 0x00,
  0x07, 0x00, 0x00, 0x00, 0x1c, 0x00, 0x00, 0x00, 0x38, 0x00, 0x00, 0x00,
  0x04, 0x00, 0x00, 0x00, 0x08, 0x00, 0x00, 0x00, 0x04, 0x00, 0x00, 0x00,
  0x03, 0x00, 0x00, 0x00, 0x01, 0x00, 0x00, 0x00, 0x18, 0x00, 0x00, 0x00,
  0x73, 0x65, 0x71, 0x75, 0x65, 0x6e, 0x74, 0x69, 0x61, 0x6c, 0x2f, 0x63,
  0x6f, 0x6e, 0x76, 0x32, 0x64, 0x2f, 0x43, 0x6f, 0x6e, 0x76, 0x32, 0x44,
  0x00, 0x00, 0x00, 0x00, 0xdc, 0xe0, 0xff, 0xff, 0xd2, 0xe1, 0xff, 0xff,
  0x04, 0x00, 0x00, 0x00, 0xc0, 0x00, 0x00, 0x00, 0xd5, 0xb7, 0x2f, 0x3e,
  0xbf, 0x41, 0xac, 0x3e, 0x1d, 0xde, 0x22, 0x3e, 0x3d, 0xaf, 0x1a, 0xbf,
  0xfd, 0x22, 0x3e, 0xbe, 0x95, 0x8d, 0x72, 0x3e, 0x28, 0x14, 0xf7, 0xbc,
  0x5c, 0x4a, 0x04, 0xbf, 0xbe, 0x94, 0x53, 0x3c, 0x98, 0xba, 0x04, 0xbf,
  0x02, 0x3b, 0x4e, 0x3e, 0xfc, 0x85, 0x87, 0x3e, 0x7e, 0xdf, 0x01, 0xbf,
  0x91, 0xfe, 0xc3, 0xbd, 0xf9, 0x17, 0x86, 0xbd, 0x4e, 0x4e, 0xac, 0x3d,
  0x07, 0xe6, 0x1a, 0x3e, 0x4d, 0x6d, 0x17, 0xbf, 0x1f, 0x0e, 0x68, 0xbf,
  0xb0, 0x07, 0x42, 0xbe, 0xe8, 0xdf, 0x19, 0x3e, 0xb8, 0x27, 0xde, 0xbd,
  0x0d, 0xb6, 0xad, 0x3e, 0x24, 0x5a, 0xd8, 0xbe, 0xa3, 0x93, 0xd1, 0xbd,
  0xb1, 0x84, 0x14, 0xbe, 0xb1, 0x57, 0x69, 0xbd, 0xf7, 0x4b, 0xb2, 0x3e,
  0x01, 0x1e, 0xb0, 0xbe, 0xa4, 0xe8, 0xff, 0xbe, 0xa0, 0x8d, 0x5a, 0xbd,
  0x0f, 0x6f, 0xc6, 0x3e, 0x70, 0x87, 0x08, 0x3f, 0x44, 0xd0, 0xb2, 0x3d,
  0x29, 0xfc, 0xa0, 0xbe, 0xef, 0xab, 0x94, 0x3e, 0x79, 0x04, 0xfe, 0x3d,
  0x05, 0x57, 0xbb, 0xbe, 0x49, 0x9d, 0x4a, 0x3e, 0x15, 0x10, 0x52, 0xbe,
  0x9c, 0x66, 0x31, 0xbf, 0xc2, 0x30, 0x2d, 0x3e, 0x91, 0x43, 0xe4, 0xbe,
  0xa5, 0xe5, 0x99, 0xbe, 0xdb, 0xb7, 0xca, 0x3d, 0xca, 0xe1, 0xd7, 0x3e,
  0x77, 0x0e, 0x0a, 0x3f, 0x43, 0x52, 0x7e, 0xbe, 0xfa, 0xe1, 0xff, 0xff,
  0x10, 0x00, 0x00, 0x00, 0x06, 0x00, 0x00, 0x00, 0x14, 0x00, 0x00, 0x00,
  0x30, 0x00, 0x00, 0x00, 0x02, 0x00, 0x00, 0x00, 0x03, 0x00, 0x00, 0x00,
  0x10, 0x00, 0x00, 0x00, 0x19, 0x00, 0x00, 0x00, 0x73, 0x65, 0x71, 0x75,
  0x65, 0x6e, 0x74, 0x69, 0x61, 0x6c, 0x2f, 0x64, 0x65, 0x6e, 0x73, 0x65,
  0x5f, 0x31, 0x2f, 0x4d, 0x61, 0x74, 0x4d, 0x75, 0x6c, 0x00, 0x00, 0x00,
  0xec, 0xe1, 0xff, 0xff, 0xe2, 0xe2, 0xff, 0xff, 0x04, 0x00, 0x00, 0x00,
  0x00, 0x1c, 0x00, 0x00, 0x90, 0x72, 0xfb, 0x3c, 0x48, 0xd2, 0x76, 0x3e,
  0x0b, 0xcb, 0x0d, 0xbe, 0x9c, 0x58, 0xbb, 0xbd, 0x55, 0xbc, 0x92, 0xbd,
  0x6f, 0xcf, 0xdd, 0x3c, 0xb2, 0x15, 0x24, 0xbb, 0xb9, 0x69, 0x7e, 0xbd,
  0x5f, 0xf3, 0x5a, 0x3e, 0xc8, 0xde, 0xe3, 0x3c, 0xbf, 0xa4, 0xe5, 0xbd,
  0xfa, 0xa9, 0x1b, 0x3e, 0xe0, 0x82, 0xdc, 0x3d, 0x94, 0x0e, 0xab, 0xbd,
  0x24, 0x99, 0x10, 0xbe, 0x41, 0x86, 0x7e, 0x3e, 0x48, 0xd6, 0x41, 0x3c,
  0xd9, 0x11, 0xfb, 0x3d, 0x2d, 0x88, 0x23, 0x3e, 0x0a, 0xe5, 0x23, 0xbd,
  0x66, 0x9c, 0x82, 0x3e, 0xcc, 0x44, 0x47, 0x3e, 0x38, 0x05, 0xdc, 0x3d,
  0xa3, 0x1f, 0x98, 0xbd, 0x04, 0x3f, 0x02, 0x3e, 0xfc, 0xa5, 0xa0, 0xbc,
  0x05, 0x25, 0xfd, 0xbd, 0xca, 0x8f, 0x98, 0x3e, 0x74, 0x09, 0x16, 0xbe,
  0x0d, 0xc9, 0x32, 0x3e, 0x6e, 0x8a, 0xad, 0x3d, 0xae, 0x3e, 0x31, 0x3e,
  0x40, 0x47, 0x94, 0xbc, 0xaa, 0x26, 0x8c, 0xbd, 0x55, 0xf9, 0x84, 0xbe,
  0x1e, 0x8b, 0xa7, 0x3e, 0x55, 0x44, 0xd1, 0xbc, 0xa5, 0xfb, 0x68, 0x3e,
  0x62, 0x2c, 0x7e, 0xbd, 0x67, 0x2a, 0xd1, 0x3d, 0x63, 0xd6, 0x10, 0x3e,
  0xb9, 0x90, 0xdd, 0x3c, 0xee, 0xb0, 0x15, 0xbe, 0x4b, 0x87, 0x6e, 0x3e,
  0xd4, 0xaa, 0x88, 0xbd, 0xa0, 0xb2, 0x1e, 0xbe, 0xd2, 0x8b, 0x4b, 0x3e,
  0x47, 0xf8, 0xc4, 0x3d, 0xcf, 0x84, 0x8b, 0x3d, 0xd0, 0x45, 0x00, 0xbe,
  0xf3, 0x3b, 0xbb, 0xbe, 0xac, 0x20, 0x1a, 0x3e, 0x69, 0x75, 0xbe, 0x3d,
  0xc4, 0xf1, 0x3e, 0xbd, 0x8b, 0x44, 0xef, 0xbd, 0x48, 0x66, 0x2c, 0x3e,
  0xba, 0xa2, 0x55, 0xbd, 0x0e, 0x8a, 0xef, 0xbd, 0xb6, 0x8e, 0x45, 0xbd,
  0x7f, 0xc7, 0xac, 0x3e, 0x8c, 0xed, 0x1e, 0x3d, 0xe9, 0xff, 0xd1, 0x3d,
  0x2c, 0xd2, 0x39, 0x3e, 0x20, 0x42, 0x30, 0x3c, 0x35, 0x29, 0x90, 0xbd,
  0xe7, 0xfb, 0x0e, 0xbd, 0x9c, 0xb1, 0x5f, 0xbe, 0x0d, 0x26, 0x23, 0xbd,
  0xde, 0xcc, 0x4f, 0x3e, 0x44, 0xa4, 0xab, 0x3e, 0x98, 0x7a, 0xa6, 0xbe,
  0xa3, 0x1f, 0xf5, 0xbd, 0xbb, 0xae, 0x6c, 0x3d, 0x0a, 0x38, 0xb5, 0x3d,
  0x66, 0x14, 0x6b, 0x3d, 0x0f, 0x5a, 0xe7, 0x3d, 0xaa, 0x83, 0x4d, 0xbe,
  0x60, 0xda, 0x54, 0x3d, 0xc3, 0x16, 0xaa, 0xbd, 0xda, 0xb2, 0x8b, 0x3e,
  0xab, 0xb5, 0x80, 0xbd, 0x9f, 0xfa, 0xd9, 0xbc, 0xe2, 0x94, 0x53, 0xbe,
  0xcb, 0x3d, 0x96, 0x3e, 0xd9, 0x93, 0x6d, 0x3e, 0x8d, 0x48, 0x77, 0x3d,
  0xcb, 0xa1, 0x1f, 0x3d, 0xbc, 0x87, 0x1c, 0x3e, 0xc5, 0x5e, 0x1a, 0xbb,
  0xfe, 0xd9, 0x1d, 0x3e, 0xf2, 0xb6, 0x31, 0x3d, 0xd8, 0xbd, 0xa2, 0x3e,
  0xa8, 0xaa, 0x3b, 0xbd, 0x78, 0x69, 0xcc, 0xbd, 0xf5, 0xd1, 0xc0, 0xbd,
  0xac, 0x85, 0x39, 0x3e, 0xf6, 0xfb, 0x91, 0x3c, 0xbf, 0xf3, 0x56, 0x3e,
  0x9a, 0x2f, 0x2e, 0xbe, 0xa9, 0xe0, 0x28, 0x3e, 0x85, 0x38, 0xc7, 0xbc,
  0xd9, 0xf2, 0x34, 0x3e, 0xcb, 0x26, 0xf6, 0xbd, 0x37, 0xee, 0x84, 0xbd,
  0x85, 0x26, 0x99, 0x3e, 0x7f, 0xb0, 0xde, 0x3b, 0x51, 0x6f, 0x13, 0xbd,
  0x03, 0x02, 0xb3, 0x3d, 0x3b, 0xed, 0xc7, 0xba, 0x9b, 0x3e, 0x09, 0x3e,
  0xde, 0xe5, 0xd8, 0xbc, 0x60, 0x94, 0x90, 0x3e, 0x13, 0x88, 0xb7, 0x3d,
  0xf2, 0xdb, 0x66, 0xbe, 0x58, 0x47, 0x84, 0x3e, 0xd0, 0xe9, 0x2b, 0x3e,
  0xcc, 0x9c, 0xba, 0xbd, 0x00, 0xd9, 0xe9, 0x3d, 0x87, 0x28, 0x02, 0x3e,
  0x63, 0x5f, 0xf0, 0x3e, 0x4b, 0x51, 0x0a, 0xbc, 0x5d, 0xe5, 0xba, 0x3e,
  0x9f, 0xac, 0xa6, 0x3d, 0x7d, 0x6d, 0x95, 0x3d, 0x27, 0x82, 0x52, 0xbe,
  0x57, 0xfc, 0x84, 0xbc, 0x18, 0xc4, 0x30, 0xbe, 0xca, 0xc7, 0x35, 0xbe,
  0x3f, 0x66, 0xee, 0x3d, 0xdc, 0x02, 0x86, 0xbd, 0x0e, 0xaa, 0xfc, 0x3e,
  0xff, 0x42, 0x1c, 0xbd, 0x48, 0xb1, 0x02, 0x3e, 0xfd, 0x40, 0xef, 0xbd,
  0x93, 0xb2, 0x8e, 0xbd, 0xd9, 0x1f, 0x86, 0x3d, 0x39, 0xae, 0x93, 0xbe,
  0xe1, 0x80, 0x9b, 0x3e, 0x3c, 0x18, 0xb5, 0x3d, 0x1e, 0x49, 0x70, 0xbe,
  0x98, 0xcf, 0xf2, 0xbd, 0x9e, 0xbe, 0x56, 0x3e, 0xeb, 0x60, 0x32, 0xbe,
  0xd1, 0x45, 0xb4, 0x3d, 0x25, 0x23, 0x82, 0xbe, 0x53, 0x69, 0x3e, 0xbe,
  0x2e, 0x80, 0xe5, 0x3e, 0x5a, 0x3a, 0xf0, 0x3d, 0xd0, 0x74, 0x48, 0x3e,
  0x8d, 0xee, 0xcd, 0x3d, 0x09, 0x4f, 0x68, 0xbd, 0xd1, 0xef, 0x6b, 0x3e,
  0xe3, 0xf7, 0x50, 0xbe, 0xbc, 0x7e, 0xbd, 0x3e, 0xd4, 0x24, 0x48, 0xbe,
  0x83, 0xac, 0x83, 0xbe, 0x0d, 0x18, 0x46, 0x3d, 0x46, 0xb7, 0x59, 0x3c,
  0x67, 0xb2, 0xbc, 0xbd, 0x5d, 0x8b, 0x05, 0xbe, 0xc3, 0x7f, 0x81, 0xbd,
  0xdd, 0xe8, 0x4e, 0xbe, 0xbf, 0x54, 0x91, 0x3e, 0xce, 0x0d, 0x50, 0x3c,
  0x6b, 0x2c, 0xad, 0x3d, 0x58, 0x50, 0xd7, 0x3d, 0x4f, 0xce, 0x07, 0x3e,
  0x96, 0x02, 0x19, 0x3e, 0x3a, 0x23, 0xa7, 0xbd, 0x08, 0xfc, 0xfe, 0x3e,
  0x3f, 0x33, 0x16, 0xbd, 0xfe, 0xfe, 0xbe, 0xbd, 0x73, 0x81, 0x13, 0x3e,
  0x5f, 0x02, 0xbd, 0xbd, 0xf0, 0xa7, 0xc9, 0x3c, 0xfd, 0x9b, 0xcc, 0xbd,
  0x3a, 0xb4, 0xe7, 0x3c, 0xc8, 0xdc, 0x66, 0xbe, 0xf2, 0x60, 0xa8, 0x3e,
  0x3a, 0x9a, 0x6b, 0x3d, 0xca, 0x99, 0xe2, 0x3d, 0xb0, 0x22, 0x4e, 0xbe,
  0xca, 0xbd, 0x99, 0x3e, 0x4d, 0xba, 0x91, 0x3e, 0xba, 0x48, 0x09, 0x3d,
  0x36, 0xe2, 0x21, 0x3e, 0xc9, 0x9d, 0x4d, 0xbe, 0x3f, 0x0a, 0xb9, 0x3c,
  0xc1, 0xc5, 0x87, 0xbd, 0x2e, 0x63, 0xbd, 0xbd, 0x5c, 0xcc, 0xa4, 0xba,
  0xdd, 0x8e, 0x1f, 0x3e, 0xcc, 0x12, 0xc7, 0xbd, 0x15, 0xa1, 0x81, 0xbe,
  0x18, 0x80, 0x6e, 0x3e, 0xed, 0x1f, 0x25, 0xbb, 0xd2, 0x1f, 0x0c, 0xbe,
  0x49, 0x43, 0x72, 0xbd, 0xd5, 0x1e, 0x0d, 0x3e, 0x52, 0xfd, 0x78, 0x3e,
  0xa3, 0xc2, 0x1a, 0x3e, 0x6a, 0x9d, 0xdf, 0x3e, 0x7e, 0x8b, 0x61, 0x3d,
  0x9b, 0xf8, 0xf0, 0xbd, 0x4b, 0x58, 0xee, 0xbd, 0xac, 0x3b, 0x8d, 0x3d,
  0x8a, 0x48, 0xe0, 0x3c, 0x2c, 0xf4, 0xf6, 0xbc, 0x2d, 0xd1, 0x23, 0xbe,
  0x78, 0xf2, 0x14, 0x3e, 0x9c, 0x86, 0xcd, 0x3e, 0x54, 0xd4, 0x93, 0x3d,
  0x7e, 0xe8, 0x7b, 0x3d, 0xed, 0x8d, 0x08, 0xbe, 0x29, 0x06, 0x25, 0x3e,
  0xa4, 0xf3, 0xca, 0x3e, 0xf9, 0x66, 0x8b, 0xbc, 0xb8, 0x0c, 0x37, 0x3e,
  0x7f, 0xce, 0x11, 0x3e, 0x33, 0x1c, 0xc0, 0xbd, 0xd5, 0x61, 0xb8, 0xbd,
  0x27, 0x1b, 0x97, 0x3e, 0xdb, 0x65, 0x2b, 0x3e, 0xde, 0x1b, 0xe7, 0x3d,
  0x8a, 0x14, 0x12, 0xbd, 0x48, 0x55, 0x73, 0xbe, 0x5a, 0x97, 0x82, 0x3f,
  0x1f, 0x02, 0x33, 0x3e, 0x4d, 0x1c, 0x97, 0xbd, 0x4e, 0xab, 0x22, 0xbe,
  0x0f, 0x66, 0xe1, 0x3a, 0xf0, 0x52, 0x8b, 0x3f, 0x8a, 0xf1, 0x42, 0xbe,
  0x7f, 0x46, 0x93, 0x3e, 0x24, 0x9b, 0x8a, 0xbd, 0xd2, 0x27, 0x4f, 0xbe,
  0x7b, 0x3a, 0xc2, 0x3d, 0x16, 0x94, 0x5e, 0x3f, 0x9c, 0xdd, 0x8c, 0x3e,
  0x3f, 0x9c, 0x6b, 0xbe, 0xf2, 0xe2, 0x03, 0xbe, 0xf0, 0x91, 0x6c, 0xbe,
  0x63, 0xed, 0x8b, 0x3f, 0x81, 0x23, 0x11, 0xbe, 0xde, 0x90, 0x4b, 0x3e,
  0xf8, 0x92, 0xa0, 0xbc, 0xd6, 0x22, 0x36, 0x3e, 0xae, 0x70, 0x2c, 0xbe,
  0xbb, 0x8b, 0x89, 0xbe, 0xd0, 0xf7, 0x59, 0x3d, 0x69, 0x60, 0xe6, 0xbd,
  0xb7, 0x72, 0x45, 0xbe, 0xb6, 0x37, 0xd2, 0x3b, 0xcb, 0x66, 0x2a, 0xbd,
  0xcf, 0xe2, 0xa9, 0x3e, 0x78, 0xa8, 0x83, 0xbe, 0x3f, 0x89, 0x88, 0xbc,
  0xa6, 0x42, 0x26, 0xbe, 0xe5, 0xcc, 0x2e, 0x3d, 0x76, 0x4b, 0xe4, 0xbd,
  0xa6, 0x3b, 0x0d, 0x3f, 0xe5, 0x91, 0xcc, 0x3d, 0xc8, 0x88, 0xd9, 0x3b,
  0x58, 0xfb, 0x91, 0xbd, 0xee, 0x81, 0xa9, 0xbc, 0xb4, 0x7d, 0x6a, 0x3e,
  0x0b, 0x8c, 0x00, 0x3e, 0x4b, 0xa7, 0x95, 0xbd, 0x05, 0x0f, 0x3b, 0x3e,
  0x95, 0xf9, 0x0c, 0xbe, 0x2c, 0x65, 0x8a, 0xbd, 0x0d, 0x40, 0x8a, 0xbd,
  0x1a, 0x2a, 0xaa, 0xbe, 0x5c, 0x21, 0x33, 0xbe, 0x88, 0x4e, 0x49, 0x3f,
  0xb1, 0x40, 0xe1, 0x3c, 0x79, 0x5b, 0xde, 0xbc, 0x6e, 0x33, 0x1a, 0xbe,
  0x84, 0x34, 0x74, 0x3e, 0x82, 0xe5, 0x71, 0x3f, 0x94, 0xf4, 0x73, 0xbe,
  0x83, 0x0c, 0xf7, 0x3e, 0x72, 0x7a, 0x18, 0xbe, 0xe8, 0x74, 0xf8, 0xba,
  0x44, 0x4b, 0x63, 0x3d, 0x99, 0xd6, 0x78, 0xbe, 0x63, 0x9a, 0xbb, 0x3e,
  0x14, 0xe6, 0x44, 0xbe, 0x85, 0x92, 0x92, 0xbe, 0xa3, 0x31, 0x04, 0xbd,
  0x0a, 0x58, 0x93, 0x3f, 0x85, 0x69, 0x17, 0x3d, 0x29, 0x1d, 0x55, 0x3e,
  0x10, 0xea, 0x56, 0xbe, 0x24, 0xd8, 0x7a, 0x3e, 0x17, 0xc5, 0x97, 0x3f,
  0xd5, 0xbd, 0x09, 0xbd, 0x9d, 0x3f, 0x7d, 0xbd, 0xf1, 0x7c, 0xef, 0xbd,
  0x4f, 0x68, 0x12, 0xbe, 0xec, 0xd8, 0x78, 0x3d, 0x74, 0x1f, 0x8a, 0x3c,
  0x07, 0x52, 0x75, 0x3e, 0x79, 0xf1, 0x8f, 0x3d, 0x9a, 0xf4, 0x81, 0xbd,
  0xf4, 0x64, 0x4c, 0xbe, 0x70, 0x99, 0x0a, 0x3e, 0xd6, 0x6c, 0x0d, 0x3d,
  0x1d, 0x27, 0xca, 0x3c, 0x9d, 0xe2, 0x34, 0xbe, 0x22, 0x22, 0x4c, 0x3d,
  0x37, 0x47, 0x7b, 0x3f, 0x50, 0x1f, 0x53, 0xbe, 0x0d, 0x13, 0x8d, 0x3f,
  0xf5, 0xab, 0x1d, 0x3e, 0x4b, 0x86, 0xd4, 0xbd, 0x7a, 0x2e, 0x98, 0xbc,
  0x85, 0xfe, 0x77, 0xbd, 0x8d, 0xf1, 0x33, 0xbd, 0x8b, 0xde, 0xe5, 0xbd,
  0xc1, 0x0d, 0x11, 0xbe, 0x05, 0x84, 0xc8, 0xbd, 0x0f, 0xb5, 0xa0, 0x3e,
  0xda, 0x38, 0x9a, 0xbd, 0x92, 0xca, 0x8a, 0x3e, 0xbf, 0x92, 0x01, 0xbb,
  0xc1, 0xbf, 0x50, 0x3e, 0x51, 0x20, 0x9b, 0x3d, 0x22, 0x1f, 0x57, 0xbe,
  0x85, 0x0c, 0x27, 0x3d, 0x95, 0x90, 0xfb, 0xbd, 0x95, 0x1a, 0x12, 0xbe,
  0xf1, 0x28, 0x23, 0xbe, 0x54, 0x5c, 0x00, 0x3d, 0xae, 0x9d, 0xf7, 0x3e,
  0xd4, 0x1e, 0x7d, 0xbe, 0x5d, 0xf4, 0x1f, 0x3e, 0xd2, 0x80, 0xbf, 0x3d,
  0xc7, 0x7b, 0xb5, 0xbd, 0xd3, 0xcb, 0x51, 0xbd, 0xf2, 0x66, 0x02, 0xbd,
  0x97, 0x40, 0x2c, 0x3e, 0x90, 0xfc, 0x6e, 0xbd, 0xbd, 0x4c, 0xa5, 0xbc,
  0x97, 0x7f, 0x05, 0x3d, 0xe0, 0xcb, 0x20, 0x3e, 0xbc, 0x13, 0x1c, 0xbd,
  0xb1, 0xca, 0xe5, 0x3d, 0xc8, 0xa5, 0x41, 0xbd, 0xab, 0x37, 0x71, 0xbd,
  0x75, 0xe6, 0xff, 0xbd, 0x51, 0x7d, 0x15, 0x3c, 0xc9, 0xfa, 0x02, 0x3e,
  0x1e, 0x7d, 0x5c, 0x3c, 0x0d, 0x9d, 0x01, 0xbe, 0x06, 0xf5, 0x9b, 0xbd,
  0x5e, 0xe7, 0x03, 0x3e, 0xce, 0xc3, 0x8f, 0x3c, 0x8d, 0x25, 0x5f, 0xbe,
  0x27, 0x8d, 0x95, 0x3d, 0x03, 0xdc, 0x45, 0x3d, 0x10, 0xb2, 0xb8, 0xbd,
  0x74, 0x39, 0x7d, 0x3d, 0x16, 0x0d, 0x85, 0x3e, 0xfc, 0x6e, 0x30, 0xbe,
  0xbb, 0x25, 0xca, 0x3d, 0x55, 0x5b, 0x82, 0xbd, 0x47, 0x87, 0x24, 0x3e,
  0x3e, 0x7f, 0x2b, 0xbd, 0xc6, 0xf2, 0x08, 0xbe, 0xa8, 0x5e, 0xbf, 0xbb,
  0x92, 0x3c, 0x7a, 0x3e, 0x2e, 0xd0, 0x33, 0x3e, 0xb0, 0xa9, 0x58, 0xbd,
  0x81, 0x95, 0x9d, 0xbe, 0x02, 0x79, 0x56, 0x3e, 0x82, 0x99, 0x30, 0x3e,
  0x8f, 0xf1, 0x72, 0xbd, 0x62, 0x6d, 0xb3, 0x3d, 0x89, 0x7f, 0x05, 0x3e,
  0x51, 0x46, 0x23, 0x3d, 0x8f, 0x14, 0xc6, 0x3c, 0x16, 0x5c, 0x1f, 0xbe,
  0x46, 0xe4, 0x1b, 0xbd, 0x31, 0xf9, 0x02, 0x3e, 0x8f, 0xce, 0x0f, 0x3d,
  0x93, 0xf2, 0x0d, 0xbe, 0x3e, 0x1c, 0x22, 0x3e, 0x58, 0x45, 0x1e, 0x3e,
  0x03, 0xdb, 0x18, 0x3d, 0x13, 0x02, 0x9d, 0xbe, 0x1c, 0x69, 0x38, 0xbe,
  0x10, 0xfd, 0xc6, 0x3d, 0x46, 0xb4, 0xed, 0x3d, 0x4e, 0xd7, 0xb1, 0x3d,
  0x38, 0xb1, 0x89, 0x3e, 0x3b, 0x01, 0x09, 0xbe, 0x63, 0x6e, 0xe9, 0x3d,
  0x03, 0x8a, 0x19, 0xbe, 0xae, 0x64, 0x69, 0xbc, 0x37, 0x0d, 0x92, 0x3e,
  0xd9, 0xb0, 0xa3, 0x3d, 0xfc, 0x46, 0xb5, 0x3c, 0xfb, 0xea, 0xb4, 0x3e,
  0x93, 0x70, 0x8a, 0x3e, 0x01, 0xa2, 0x6f, 0xbd, 0x39, 0xef, 0x86, 0xbd,
  0x19, 0x61, 0x02, 0xbe, 0x66, 0x3e, 0x01, 0xbd, 0xda, 0x80, 0xe4, 0xbd,
  0xb6, 0xe9, 0xb1, 0xbd, 0xb3, 0xe8, 0xa1, 0x3e, 0x7a, 0x88, 0x8f, 0x3d,
  0x77, 0x67, 0xc3, 0x3d, 0x20, 0x9e, 0xeb, 0xbd, 0xa9, 0xdf, 0x65, 0x3d,
  0xd7, 0x18, 0x2a, 0xbd, 0xec, 0xc5, 0x91, 0xba, 0x47, 0x0c, 0xa2, 0xbe,
  0xf1, 0x37, 0x15, 0x3d, 0x06, 0x7e, 0xfa, 0x3d, 0x0d, 0xa9, 0xd8, 0xbd,
  0x9b, 0x54, 0xb3, 0xbd, 0xa2, 0x3f, 0xa6, 0xbd, 0x85, 0xd1, 0xb9, 0x3d,
  0x75, 0x5d, 0x15, 0xbe, 0xe5, 0xea, 0x13, 0x3e, 0x29, 0x11, 0x2f, 0x3e,
  0x03, 0x2b, 0x03, 0xbe, 0xb2, 0xb5, 0xc0, 0x3d, 0x38, 0xed, 0x39, 0x3e,
  0xf2, 0xc3, 0xb2, 0x3e, 0xb3, 0x75, 0x79, 0x3e, 0x8b, 0x7d, 0x20, 0x3d,
  0x1f, 0x16, 0x97, 0xbd, 0x5e, 0x96, 0x35, 0x3e, 0xd9, 0x35, 0x68, 0x3e,
  0x84, 0x5f, 0xb2, 0x3e, 0x0e, 0x6a, 0x97, 0xbe, 0xce, 0xba, 0x80, 0x3d,
  0x10, 0x67, 0xad, 0x3e, 0x4e, 0x27, 0x88, 0xbd, 0xc4, 0x91, 0x94, 0xbd,
  0x8c, 0xff, 0x66, 0x3a, 0x00, 0xb5, 0xa3, 0x3e, 0x5c, 0xbf, 0x0a, 0x3c,
  0xf1, 0x56, 0xe4, 0x3d, 0xbe, 0xf8, 0x9a, 0x3d, 0x65, 0xf7, 0xcf, 0x3c,
  0xfd, 0xe6, 0x3c, 0xbe, 0xe4, 0x05, 0x36, 0xbe, 0x8b, 0xa4, 0x36, 0x3e,
  0xf8, 0x54, 0x84, 0xbd, 0xec, 0xdd, 0xf0, 0x3c, 0xed, 0x4e, 0x34, 0x3d,
  0xea, 0x40, 0x36, 0xbd, 0x6b, 0xa4, 0x1a, 0xbe, 0xe9, 0xdb, 0x26, 0x3e,
  0x70, 0xdd, 0x03, 0xbc, 0x9c, 0xaa, 0x3a, 0xbd, 0xd6, 0xc1, 0x01, 0xbe,
  0x7d, 0xfd, 0x62, 0xbe, 0x39, 0x12, 0x82, 0xbe, 0xeb, 0x67, 0x52, 0xbd,
  0xe4, 0x85, 0x7f, 0xbd, 0x75, 0x7c, 0x54, 0xbd, 0xf0, 0x84, 0x6a, 0x3c,
  0x63, 0xde, 0x5f, 0xbd, 0x5b, 0x88, 0x55, 0xbe, 0x8b, 0xba, 0x2d, 0xbd,
  0xac, 0x1f, 0x8d, 0xbc, 0x49, 0xe1, 0xea, 0x3c, 0x45, 0xe7, 0xe2, 0xbc,
  0xa6, 0xd8, 0x4c, 0xbe, 0x4f, 0x5e, 0x49, 0xbe, 0x0e, 0xc7, 0x3b, 0x3c,
  0xe1, 0x3c, 0x0a, 0xbe, 0x90, 0xda, 0x7e, 0xbe, 0x8c, 0x61, 0x04, 0xbd,
  0x3c, 0x0f, 0xb7, 0xbc, 0xab, 0x4e, 0xc9, 0x3d, 0x81, 0xd9, 0x53, 0x3d,
  0x49, 0x4f, 0x91, 0xbd, 0xcd, 0x5f, 0x53, 0xbe, 0xc9, 0xb6, 0xea, 0x3c,
  0xca, 0x7c, 0xc9, 0x3d, 0x10, 0xc0, 0x0e, 0x3d, 0x99, 0x63, 0xec, 0x3d,
  0x2b, 0x03, 0xd7, 0xbd, 0x95, 0x43, 0x0e, 0x3d, 0xb9, 0xb3, 0x1d, 0x3e,
  0x3b, 0x3c, 0x63, 0x3c, 0xda, 0xd8, 0x8e, 0x3d, 0xe9, 0x40, 0x18, 0x3e,
  0x21, 0x54, 0x23, 0x3e, 0xd1, 0xab, 0xe8, 0xbc, 0x35, 0xaa, 0x07, 0x3e,
  0x6d, 0xe7, 0xc0, 0x3d, 0x5a, 0xa4, 0x11, 0xbe, 0xb2, 0x32, 0x7a, 0xbe,
  0x0b, 0xd1, 0x32, 0xbe, 0x5c, 0xd9, 0x3e, 0xbe, 0x4e, 0xc2, 0x36, 0xbd,
  0xe8, 0x8d, 0x37, 0xbe, 0xc4, 0x08, 0x00, 0xbe, 0x89, 0xb1, 0x23, 0xbd,
  0x9e, 0x18, 0x38, 0x3e, 0xaa, 0x15, 0x80, 0xbd, 0x3e, 0xc2, 0xd3, 0xbc,
  0xba, 0x0f, 0x1e, 0xbd, 0x24, 0x3d, 0x48, 0xbe, 0x8c, 0xaf, 0xff, 0xb9,
  0xcf, 0xc1, 0x29, 0x3e, 0x0b, 0xf3, 0x42, 0x3d, 0x70, 0xb4, 0x08, 0x3e,
  0x60, 0xbc, 0x2e, 0x3e, 0x12, 0x15, 0x0f, 0xbe, 0xed, 0xf3, 0x3d, 0xbe,
  0x9c, 0x42, 0x51, 0x3c, 0x32, 0xbb, 0x03, 0x3e, 0xf9, 0x0e, 0x89, 0x3d,
  0x4a, 0x28, 0x9f, 0xbd, 0x00, 0xc9, 0x38, 0x3b, 0x1d, 0x90, 0x43, 0x3c,
  0xe8, 0xe2, 0x0b, 0x3e, 0x9d, 0x85, 0x2a, 0xbd, 0x2f, 0x59, 0x26, 0xbe,
  0x4c, 0x5b, 0xaa, 0xbc, 0x7d, 0xd0, 0x52, 0xbd, 0x50, 0x6f, 0xbc, 0x3d,
  0xee, 0x6f, 0x0d, 0x3e, 0x9b, 0x3a, 0x2a, 0xbd, 0x2e, 0xbd, 0x0d, 0x3d,
  0x22, 0x78, 0xd8, 0x3d, 0xca, 0x2a, 0x61, 0xbe, 0x48, 0x6a, 0x4c, 0xbe,
  0x85, 0xa2, 0x04, 0x3d, 0x6a, 0x8d, 0x32, 0xbe, 0x8d, 0x5a, 0x90, 0x3c,
  0x36, 0x96, 0xcb, 0x3c, 0x8d, 0xca, 0xab, 0xbd, 0x07, 0x82, 0x08, 0xbe,
  0x55, 0x11, 0x4d, 0xbe, 0xba, 0xaa, 0xc2, 0x3d, 0x07, 0xca, 0x3b, 0xbe,
  0xcf, 0x35, 0xfa, 0xbd, 0xbb, 0x73, 0x2f, 0xbe, 0x95, 0xa9, 0x52, 0xbe,
  0xd1, 0x0b, 0xd1, 0xbd, 0x14, 0x92, 0x2a, 0x3e, 0xa5, 0x28, 0x27, 0x3e,
  0x3e, 0x3f, 0x50, 0xbe, 0x7b, 0x8e, 0xde, 0x3c, 0x5b, 0xaf, 0x14, 0xbd,
  0x05, 0x8e, 0x54, 0x3e, 0x02, 0x1f, 0xa0, 0x3d, 0xe2, 0xb2, 0xeb, 0xbd,
  0xe3, 0xe6, 0x00, 0xbe, 0x08, 0x67, 0xb3, 0x3d, 0x5d, 0x19, 0xf6, 0xbd,
  0xd2, 0x82, 0xaf, 0x3d, 0x75, 0x92, 0x0e, 0x3d, 0x31, 0x53, 0xca, 0xbd,
  0x97, 0xfa, 0x16, 0xbe, 0x8e, 0x18, 0x3f, 0xbe, 0x71, 0xef, 0x91, 0x3b,
  0x70, 0x07, 0x43, 0x3e, 0xd2, 0x34, 0x1b, 0x3e, 0x4f, 0x6a, 0xfb, 0x3d,
  0x06, 0x99, 0xb6, 0xbd, 0x78, 0xd8, 0x37, 0x3e, 0xd8, 0x8f, 0x0e, 0xbe,
  0x23, 0xbf, 0x34, 0xbd, 0x69, 0x40, 0x1b, 0xbe, 0x53, 0xcf, 0x0e, 0x3d,
  0x47, 0x0a, 0xae, 0x3b, 0xa2, 0x84, 0x20, 0xbe, 0x90, 0x8e, 0x10, 0xbe,
  0xb8, 0xbb, 0xd5, 0x3d, 0x2f, 0x82, 0xde, 0xbd, 0xa5, 0x10, 0x68, 0xbe,
  0x62, 0xab, 0xb3, 0xbd, 0xa9, 0x01, 0x8f, 0x3c, 0x67, 0x9a, 0x46, 0xbd,
  0x07, 0x24, 0x2e, 0xbe, 0x42, 0xd0, 0x6b, 0xbe, 0xf1, 0x73, 0x9c, 0x3c,
  0x05, 0x38, 0xbf, 0xbd, 0x04, 0xda, 0xf0, 0xbd, 0xd9, 0x87, 0x87, 0x3d,
  0xc2, 0xed, 0x03, 0x3d, 0xa2, 0xfb, 0xfd, 0x3d, 0x3e, 0x64, 0xcf, 0x3d,
  0x09, 0x50, 0xb7, 0xbd, 0xe0, 0xd4, 0x32, 0x3e, 0x4f, 0x32, 0x0a, 0xbe,
  0xb7, 0x73, 0x11, 0xbe, 0x1a, 0x96, 0x1f, 0x3e, 0x27, 0xba, 0x15, 0xbe,
  0xf7, 0x7e, 0xc4, 0xbd, 0xcf, 0x4e, 0x89, 0xbd, 0xb9, 0xeb, 0xec, 0xbb,
  0x72, 0xfe, 0xdb, 0x3d, 0x30, 0x47, 0x72, 0x3b, 0x73, 0xa3, 0x25, 0x3d,
  0x44, 0xf5, 0xb3, 0xbd, 0x45, 0x18, 0x06, 0xbd, 0x37, 0x2f, 0xf3, 0x3d,
  0xae, 0x29, 0x0b, 0x3e, 0xf9, 0x4a, 0x85, 0xbe, 0x86, 0xf8, 0x52, 0xbc,
  0xa4, 0x08, 0x33, 0xbe, 0x0a, 0xc7, 0x13, 0x3e, 0x33, 0xaf, 0x32, 0x3d,
  0xad, 0x0a, 0xb6, 0x3d, 0xf7, 0x0f, 0x18, 0xbe, 0x34, 0xd2, 0xca, 0x3d,
  0x0a, 0x11, 0x79, 0xbc, 0xee, 0xfd, 0x21, 0xbe, 0x87, 0x6c, 0x5f, 0x3d,
  0xb4, 0x87, 0x67, 0xbe, 0x67, 0xe2, 0xd0, 0x3c, 0x90, 0xf7, 0x46, 0xbe,
  0xe9, 0x09, 0x34, 0xbe, 0x20, 0xff, 0x08, 0x3d, 0x19, 0xe1, 0x0f, 0xbe,
  0x5e, 0xb7, 0x84, 0x3d, 0x0a, 0x5a, 0x43, 0xbe, 0x26, 0x8f, 0x14, 0xbe,
  0xd1, 0xb6, 0x8a, 0xbd, 0xf2, 0x89, 0x31, 0xbe, 0x46, 0xd7, 0xaa, 0x3d,
  0x67, 0xac, 0x87, 0x3d, 0x11, 0xe4, 0xc3, 0xbc, 0xfc, 0x6d, 0x49, 0x3c,
  0xea, 0x52, 0x20, 0x3e, 0x8a, 0xfb, 0xd9, 0xbd, 0xf9, 0xd5, 0x3a, 0xbc,
  0x7e, 0xfe, 0x50, 0xbe, 0x39, 0x39, 0x18, 0xbd, 0x90, 0x69, 0x07, 0x3e,
  0x04, 0xec, 0x52, 0xbc, 0xde, 0x53, 0x46, 0x3d, 0xad, 0x51, 0x15, 0xbe,
  0x80, 0x28, 0x30, 0x3e, 0x30, 0xbf, 0x64, 0xbe, 0x55, 0x90, 0x52, 0x3e,
  0x36, 0x93, 0x70, 0xbd, 0x90, 0x84, 0xac, 0x3d, 0x9b, 0xa2, 0x21, 0xbd,
  0x1e, 0x1e, 0x14, 0x3e, 0x99, 0x7b, 0x55, 0xbe, 0x54, 0xef, 0xb5, 0x3d,
  0xbb, 0x2a, 0x4b, 0xbd, 0xfc, 0xe8, 0x0f, 0x3e, 0x09, 0xf1, 0x5f, 0xbe,
  0xef, 0x08, 0x07, 0xbe, 0xb8, 0x3e, 0x60, 0xbd, 0x1c, 0x5e, 0x5a, 0x3d,
  0x89, 0xd4, 0x37, 0xbe, 0x33, 0x32, 0x24, 0x3e, 0xb8, 0x44, 0x93, 0xbd,
  0xcb, 0xda, 0x50, 0x3e, 0x84, 0x17, 0x47, 0x3e, 0x91, 0x85, 0xdf, 0x3d,
  0x7e, 0x80, 0x3f, 0xbd, 0x57, 0xcc, 0x96, 0x3c, 0x0e, 0x34, 0xf2, 0xbd,
  0x90, 0xf9, 0x31, 0x3d, 0x23, 0x02, 0x1f, 0x3d, 0x1e, 0x73, 0x0e, 0xbe,
  0x25, 0xe9, 0x0d, 0x3c, 0xa1, 0x48, 0x82, 0xbd, 0xe2, 0x66, 0x24, 0xbe,
  0xe4, 0xe6, 0xab, 0x3d, 0xf1, 0x49, 0x3b, 0x3d, 0xbe, 0x28, 0xa5, 0xbc,
  0x03, 0x4d, 0x8c, 0x3b, 0x51, 0x55, 0x3f, 0x3e, 0x70, 0xa7, 0x4c, 0xbe,
  0xc7, 0x62, 0x08, 0xbe, 0xfd, 0xe3, 0x69, 0xbd, 0xcf, 0x9f, 0x52, 0x3e,
  0xef, 0x3c, 0x4d, 0x3e, 0x10, 0xb5, 0x95, 0xbd, 0x02, 0xee, 0xeb, 0x3d,
  0x13, 0x9a, 0x7f, 0xbe, 0x17, 0xf9, 0xdd, 0x3d, 0x4f, 0xcd, 0xe3, 0x3d,
  0x99, 0x1a, 0x3c, 0xbd, 0x64, 0xd0, 0xa9, 0x3d, 0x65, 0x22, 0x8b, 0xbd,
  0x6a, 0xf5, 0xb2, 0x3b, 0x3e, 0x49, 0x96, 0xbd, 0x58, 0x21, 0x85, 0xbd,
  0x54, 0xd0, 0xdc, 0xbd, 0xa8, 0xb1, 0x9c, 0xbd, 0xe4, 0x98, 0xb8, 0xbd,
  0xe7, 0xf6, 0x33, 0x3e, 0x24, 0x3b, 0xff, 0x3b, 0x2e, 0xa2, 0x97, 0xbd,
  0xd2, 0x69, 0x1c, 0x3d, 0x59, 0xc7, 0x3d, 0x3e, 0x7d, 0xfe, 0x04, 0xbe,
  0x3a, 0xf8, 0x53, 0xbe, 0xdd, 0x5d, 0x89, 0xbd, 0x0f, 0xb7, 0x9a, 0x3d,
  0x38, 0x04, 0x10, 0x3e, 0xff, 0x1f, 0x88, 0x3d, 0x9d, 0xc5, 0x07, 0xbe,
  0xaf, 0x80, 0x54, 0xbe, 0x69, 0x24, 0xba, 0x3d, 0xe7, 0x3b, 0x4c, 0xbe,
  0xbe, 0xba, 0x65, 0x3d, 0x6c, 0xc0, 0x5a, 0xbe, 0x8a, 0x6f, 0x5d, 0xbe,
  0xb2, 0x27, 0x9a, 0x3d, 0xdc, 0x77, 0x46, 0x3d, 0x2d, 0xd1, 0x96, 0x3d,
  0x17, 0x04, 0x9e, 0x3c, 0x28, 0x0b, 0x6d, 0xbd, 0xf3, 0x11, 0x50, 0x3e,
  0xa5, 0xe7, 0xe2, 0xbd, 0x4a, 0xad, 0x85, 0x3b, 0xdf, 0x93, 0x8d, 0xbd,
  0x3e, 0x96, 0x29, 0xbe, 0x16, 0xba, 0xe4, 0x3d, 0x30, 0x2c, 0x9a, 0x3c,
  0x41, 0x81, 0x22, 0xbe, 0xea, 0x60, 0xe2, 0x3d, 0xcc, 0x15, 0x38, 0xbd,
  0x05, 0x27, 0x00, 0xbe, 0x92, 0x36, 0xe3, 0x3d, 0x18, 0x8f, 0x8e, 0xbd,
  0x11, 0x91, 0x52, 0xbe, 0xf8, 0xc6, 0x88, 0xbd, 0xbe, 0x67, 0x04, 0xbd,
  0x5c, 0x06, 0x33, 0x3e, 0xeb, 0x5e, 0xb3, 0x3d, 0x14, 0x35, 0x66, 0xbe,
  0x70, 0xf5, 0x03, 0x3e, 0x78, 0xf6, 0x1f, 0xbd, 0xe8, 0x4f, 0x3b, 0xbe,
  0x30, 0x5a, 0xcd, 0xbc, 0xd8, 0x44, 0xde, 0xbd, 0x94, 0x02, 0x2e, 0xbe,
  0xce, 0x30, 0xa5, 0x3d, 0x7c, 0xab, 0xdd, 0x3d, 0x22, 0x48, 0xf3, 0xbd,
  0x3d, 0x75, 0x8e, 0x3d, 0xca, 0xc3, 0x60, 0xbd, 0x96, 0xd0, 0xce, 0xbd,
  0x0a, 0x14, 0xe5, 0x3d, 0xb4, 0x83, 0x14, 0xbe, 0xe8, 0x57, 0x8f, 0xbd,
  0x85, 0x57, 0x34, 0xbe, 0x57, 0xb4, 0x0e, 0xbd, 0xfa, 0xc2, 0x0e, 0xbe,
  0x33, 0x17, 0x08, 0xbe, 0x44, 0xb1, 0x23, 0xbe, 0x34, 0x6b, 0x3d, 0xbe,
  0x35, 0xe8, 0x8b, 0x3c, 0x22, 0xf9, 0xc4, 0x3d, 0x66, 0xdc, 0x46, 0xbc,
  0x65, 0x4e, 0x27, 0xbe, 0x0a, 0xf3, 0xa2, 0xbd, 0x01, 0x1a, 0x4a, 0x3d,
  0x0c, 0xc3, 0x63, 0xbd, 0x55, 0xe0, 0xa0, 0xbd, 0x15, 0x23, 0xfc, 0x3d,
  0x9b, 0x3a, 0x36, 0x3d, 0xd0, 0x71, 0x3b, 0xbe, 0x1e, 0xb3, 0x81, 0xbd,
  0x0c, 0x98, 0x16, 0x3d, 0xac, 0x98, 0x03, 0xbe, 0x54, 0x22, 0x33, 0xbe,
  0xf8, 0x2e, 0x09, 0xbe, 0x9a, 0xa2, 0xa8, 0xbd, 0x9a, 0xfa, 0xaa, 0xbc,
  0x4d, 0x54, 0xc6, 0x3c, 0x20, 0x4a, 0xe1, 0xbd, 0x80, 0x9d, 0x90, 0xbd,
  0xdf, 0xae, 0x31, 0x3e, 0xb9, 0x70, 0xd5, 0x3d, 0x90, 0x33, 0xab, 0x3d,
  0xe1, 0x55, 0x80, 0x3e, 0xa6, 0xa3, 0x34, 0x3e, 0xa3, 0xf0, 0x13, 0x3d,
  0x21, 0x47, 0x8e, 0x3e, 0x8f, 0x69, 0xb8, 0x3d, 0x49, 0x63, 0x95, 0xbe,
  0xcd, 0x3a, 0x0a, 0x3c, 0x79, 0xec, 0x6d, 0x3d, 0x57, 0x0c, 0x50, 0x3c,
  0x8f, 0x42, 0x37, 0xbe, 0xb7, 0x7d, 0xd7, 0x3c, 0xf2, 0xae, 0x9b, 0xbd,
  0x61, 0x54, 0x9f, 0xbd, 0x02, 0x41, 0xc4, 0xbd, 0xe0, 0xdd, 0xac, 0x3d,
  0x2a, 0xf3, 0xca, 0xbd, 0x96, 0xe6, 0x06, 0x3e, 0x6e, 0xfb, 0x37, 0xbe,
  0x8a, 0xd3, 0x96, 0xbd, 0x44, 0x16, 0x26, 0x3c, 0x59, 0x56, 0x2e, 0x3e,
  0xe9, 0x1a, 0x13, 0x3e, 0x1e, 0x55, 0xed, 0xbc, 0xc7, 0xc4, 0x5c, 0x3e,
  0xcd, 0x6d, 0xdb, 0xbd, 0x5b, 0x52, 0x67, 0x3e, 0xbf, 0x61, 0x7a, 0x3e,
  0xa7, 0x0f, 0x03, 0xbe, 0x29, 0xae, 0x0c, 0x3e, 0x9d, 0x8c, 0xdc, 0xbd,
  0x03, 0xd6, 0x85, 0x3e, 0x5e, 0x3c, 0x85, 0x3d, 0x48, 0x60, 0xd0, 0x3d,
  0x80, 0x64, 0x61, 0xbe, 0x55, 0x1d, 0x52, 0x3e, 0x89, 0xae, 0x01, 0x3e,
  0x74, 0x74, 0x74, 0x3e, 0xe0, 0x20, 0x79, 0x3d, 0xcd, 0xed, 0xf7, 0xbd,
  0x12, 0xde, 0x74, 0x3e, 0x88, 0x3e, 0x40, 0x3e, 0xf5, 0xf1, 0x80, 0x3e,
  0x78, 0x8a, 0x85, 0x3e, 0x57, 0xbe, 0x61, 0x3e, 0x96, 0xaf, 0x22, 0x3e,
  0x82, 0x8c, 0x0b, 0xbe, 0x92, 0xfc, 0x94, 0x3d, 0xf0, 0x9e, 0x05, 0xbe,
  0xe8, 0x06, 0x6c, 0x3e, 0xa3, 0x29, 0x25, 0xbd, 0xfc, 0xd8, 0x7f, 0x3e,
  0x8b, 0x58, 0x24, 0x3e, 0x98, 0xca, 0x23, 0x3e, 0x97, 0x33, 0x81, 0xbe,
  0xd8, 0xfa, 0x3d, 0x3e, 0x07, 0x77, 0x48, 0x3e, 0x23, 0xc3, 0xb6, 0x3d,
  0x32, 0x3c, 0x23, 0xbe, 0x6b, 0xd8, 0x6a, 0x3e, 0x85, 0xb6, 0x6e, 0x3e,
  0x4c, 0x1b, 0x07, 0x3d, 0x44, 0xdf, 0x09, 0x3e, 0x37, 0xcd, 0x8b, 0x3e,
  0x5a, 0xd0, 0x7d, 0x3e, 0x7b, 0xf5, 0xea, 0xbc, 0xe1, 0x39, 0x96, 0xbd,
  0x2c, 0x8c, 0x98, 0x3e, 0xb0, 0x83, 0x4e, 0x3e, 0xff, 0xb1, 0x93, 0x3c,
  0xd6, 0x09, 0xb8, 0xbd, 0xd7, 0x88, 0x25, 0xbd, 0x88, 0xdc, 0x58, 0x3e,
  0x07, 0x3b, 0x71, 0xbe, 0x65, 0x85, 0x53, 0xbe, 0x93, 0x83, 0x3c, 0x3e,
  0x07, 0x9e, 0x27, 0x3e, 0x44, 0x0f, 0xc6, 0xbd, 0xde, 0x7b, 0xd8, 0xbd,
  0xd2, 0x8f, 0xea, 0xbd, 0x3d, 0x3b, 0xf4, 0x3d, 0x14, 0x9c, 0x09, 0x3e,
  0x87, 0xb8, 0xa9, 0xbe, 0xdf, 0x9e, 0x9f, 0x3e, 0xb3, 0xbf, 0x75, 0x3e,
  0xf9, 0x21, 0x09, 0x3b, 0xaa, 0x20, 0x35, 0x3c, 0x3f, 0x9d, 0x0b, 0xbe,
  0x69, 0xe8, 0x38, 0x3e, 0x60, 0xf2, 0x34, 0xbe, 0x96, 0xcb, 0xbb, 0xbd,
  0xe7, 0x84, 0xeb, 0xbc, 0x78, 0xe3, 0xd7, 0xbd, 0x69, 0xce, 0x0c, 0xbe,
  0x98, 0x60, 0x24, 0x3e, 0x6a, 0x3a, 0x55, 0x3e, 0x79, 0x0b, 0xd3, 0xbd,
  0xe3, 0xc4, 0x4e, 0x3e, 0xdc, 0x48, 0x27, 0xbc, 0xd5, 0x1e, 0x53, 0x3e,
  0x30, 0x45, 0x8d, 0x3d, 0xdc, 0xd2, 0x36, 0x3e, 0x4b, 0xf4, 0xa2, 0xbd,
  0x66, 0x37, 0xcc, 0xbd, 0x60, 0x81, 0x4d, 0x3e, 0x21, 0x4a, 0x54, 0xbd,
  0xb9, 0x5d, 0x2f, 0xbd, 0x29, 0xb3, 0x11, 0x3e, 0x19, 0x72, 0x46, 0x3e,
  0x09, 0xb2, 0x2b, 0x3d, 0x56, 0xd8, 0x1f, 0x3e, 0x54, 0xf3, 0xcf, 0x3d,
  0x8a, 0xee, 0x2b, 0xbe, 0xe3, 0xd3, 0x42, 0xbe, 0xe4, 0x2f, 0x84, 0x3e,
  0x4f, 0x77, 0xa2, 0x3d, 0x4a, 0xaa, 0x5c, 0x3e, 0xba, 0xde, 0x27, 0x3d,
  0x53, 0xbc, 0xa2, 0x3c, 0xa6, 0x01, 0xa8, 0xbd, 0x55, 0xb8, 0x66, 0x3e,
  0xfb, 0x78, 0x4d, 0x3e, 0xc7, 0xd5, 0x40, 0xbc, 0x43, 0xce, 0x91, 0x3d,
  0x15, 0x70, 0x36, 0xbe, 0x74, 0xdc, 0x7b, 0xbd, 0x5f, 0x48, 0x31, 0xbd,
  0xb3, 0x9f, 0x95, 0x3d, 0x3d, 0xc7, 0x9c, 0x3d, 0x03, 0x61, 0x61, 0xbe,
  0x1b, 0x17, 0xef, 0x3d, 0xda, 0x50, 0x01, 0xbe, 0x10, 0xca, 0xe3, 0x3d,
  0xee, 0xc4, 0xa9, 0x3b, 0x86, 0x71, 0xdb, 0xbd, 0x11, 0x0c, 0xa1, 0x3e,
  0x37, 0x32, 0x12, 0x3d, 0xf6, 0xab, 0xc2, 0x3d, 0x50, 0x58, 0x70, 0xbd,
  0x7c, 0x42, 0xa9, 0x3d, 0x1f, 0x15, 0xeb, 0x3c, 0x38, 0x8b, 0x4d, 0xbd,
  0xc0, 0xc0, 0x3d, 0xbe, 0x2d, 0x9b, 0x0e, 0xbd, 0x2f, 0x65, 0x4c, 0xbd,
  0x19, 0x1f, 0x1e, 0xbe, 0xe3, 0x70, 0xfe, 0xbd, 0xce, 0xdf, 0xa7, 0x3e,
  0xc1, 0xea, 0x1c, 0x3e, 0x00, 0xa7, 0x55, 0x3e, 0xb6, 0xe7, 0x00, 0xbc,
  0xbc, 0x47, 0x8d, 0x3e, 0xab, 0x98, 0x1f, 0x3d, 0x1a, 0xd8, 0xa3, 0x3e,
  0xb6, 0xc6, 0x3d, 0xbc, 0xbc, 0xfe, 0x0f, 0xbe, 0x17, 0xca, 0x1a, 0x3d,
  0xcd, 0x69, 0xe1, 0x3a, 0xe4, 0xc6, 0xa8, 0x3c, 0xdb, 0x9e, 0x0f, 0x3e,
  0x70, 0x4e, 0x4a, 0x3e, 0x93, 0xaa, 0x54, 0x3d, 0x0e, 0x18, 0xab, 0x3e,
  0x70, 0x96, 0x2b, 0xbd, 0x65, 0x0c, 0x65, 0x3e, 0x8c, 0x0e, 0x37, 0x3e,
  0xb4, 0x7e, 0x84, 0x3e, 0x46, 0xf5, 0x15, 0x3d, 0xf8, 0x97, 0x25, 0x3e,
  0x57, 0x9f, 0x50, 0xbb, 0xeb, 0xd3, 0xa3, 0xbd, 0x9a, 0x82, 0x15, 0xbe,
  0x63, 0xba, 0x8c, 0x3c, 0x0e, 0x0e, 0x5b, 0x3e, 0x6a, 0xb6, 0x15, 0x3e,
  0xe8, 0x32, 0xb4, 0xbd, 0x0a, 0x90, 0x02, 0x3e, 0x6e, 0xc6, 0x17, 0x3e,
  0x34, 0x04, 0x15, 0x3e, 0x1d, 0x01, 0x2e, 0x3e, 0x61, 0x58, 0x12, 0x3e,
  0x4e, 0x92, 0xf1, 0x3d, 0xab, 0xc8, 0x7b, 0x3e, 0xd2, 0xc7, 0x3c, 0x3e,
  0xf1, 0x7c, 0x2b, 0x3e, 0x4c, 0x80, 0x88, 0x3d, 0x55, 0x89, 0x50, 0xbe,
  0xc6, 0x49, 0x70, 0x3e, 0xf0, 0x5d, 0xc5, 0xbd, 0xbc, 0x32, 0x8e, 0x3e,
  0xab, 0x3b, 0xb6, 0x3d, 0xde, 0xcc, 0x5c, 0x3c, 0x4c, 0x48, 0x2b, 0x3e,
  0xff, 0xb1, 0x42, 0x3e, 0xac, 0xcf, 0x6e, 0x3d, 0x04, 0xfc, 0x1d, 0xbc,
  0x0a, 0x75, 0xd4, 0xbd, 0x13, 0xef, 0x44, 0xbe, 0x72, 0xca, 0x56, 0xbd,
  0x2f, 0x66, 0xae, 0x3d, 0x11, 0x42, 0xcd, 0xbd, 0x78, 0x61, 0x52, 0xbd,
  0x6c, 0x1f, 0x47, 0x3e, 0xd4, 0x96, 0x84, 0x3e, 0x58, 0x88, 0x53, 0x3d,
  0xe8, 0x88, 0x84, 0x3d, 0x29, 0xa7, 0xc8, 0xbc, 0x4f, 0xec, 0x1c, 0x3e,
  0x60, 0x19, 0xe6, 0x3d, 0x75, 0xb6, 0x0d, 0x3e, 0x41, 0x71, 0x6a, 0x3e,
  0x6e, 0x4a, 0x1d, 0x3e, 0xe4, 0x43, 0x48, 0x3d, 0x4a, 0x52, 0x3e, 0x3d,
  0x98, 0xd7, 0x9b, 0x3e, 0xf6, 0x0b, 0xb3, 0x3d, 0x44, 0xfc, 0xf9, 0x3d,
  0x7f, 0x59, 0xc0, 0x3d, 0x04, 0xfc, 0x2b, 0xbe, 0x4c, 0x98, 0x15, 0x3d,
  0xf9, 0xb8, 0xa4, 0x3d, 0xba, 0x5e, 0x81, 0x3d, 0xda, 0x6e, 0x3b, 0xbe,
  0x93, 0x60, 0x0f, 0x3e, 0xd3, 0xea, 0x12, 0xbe, 0xf0, 0x43, 0xaf, 0x3d,
  0x67, 0x53, 0xad, 0x3d, 0xac, 0xff, 0x1c, 0x3e, 0x29, 0x5f, 0x1c, 0x3e,
  0xa7, 0xf6, 0xdd, 0x3d, 0x2a, 0xaa, 0x84, 0xbe, 0x81, 0xbd, 0xd4, 0x3d,
  0x01, 0xab, 0xbe, 0xbc, 0x23, 0x02, 0x13, 0xbe, 0x85, 0x79, 0x75, 0x3e,
  0x49, 0x0d, 0xcd, 0x3d, 0x28, 0x95, 0xf2, 0xbd, 0x21, 0x31, 0x47, 0x3e,
  0x74, 0x15, 0xc3, 0xbc, 0x96, 0xa3, 0xbe, 0xbd, 0x99, 0x4f, 0x70, 0xbd,
  0x31, 0x66, 0x6b, 0x3d, 0x50, 0xd3, 0xdc, 0x3d, 0xa1, 0xe5, 0xee, 0x3d,
  0x80, 0x28, 0x34, 0x3e, 0x2f, 0x13, 0x02, 0x3e, 0x37, 0x0f, 0xc3, 0x3d,
  0xf0, 0x0e, 0xab, 0xbd, 0x39, 0x5a, 0xcb, 0x3c, 0xe9, 0x62, 0x21, 0xbe,
  0x9c, 0xd7, 0x1c, 0x3e, 0xbe, 0x9f, 0xd7, 0x3d, 0xd6, 0x2a, 0xcf, 0x3d,
  0x23, 0x6f, 0xdd, 0x3c, 0xa6, 0x79, 0x4c, 0x3d, 0xdd, 0xe8, 0x89, 0x3c,
  0x21, 0x55, 0xc1, 0xbc, 0xba, 0x3e, 0x89, 0x3d, 0x90, 0x44, 0x9e, 0x3d,
  0x22, 0x76, 0x9c, 0xbc, 0x5a, 0xff, 0x91, 0xbd, 0x0a, 0x9c, 0xe0, 0xbd,
  0xfe, 0x1f, 0x91, 0xbc, 0x40, 0x20, 0x08, 0x3d, 0x06, 0x75, 0x9e, 0x3d,
  0xdd, 0xf9, 0xcc, 0xbd, 0xf3, 0x24, 0x81, 0x3e, 0x06, 0xe8, 0x1b, 0x3e,
  0x53, 0x21, 0x09, 0x3d, 0xd9, 0xd1, 0x0a, 0x3d, 0xc8, 0x54, 0xb0, 0xbc,
  0x5c, 0xe9, 0x95, 0x3d, 0x22, 0x64, 0x57, 0x3e, 0xb9, 0xe8, 0xcd, 0x3d,
  0x41, 0x23, 0x09, 0x3d, 0x2b, 0x41, 0x4c, 0x3e, 0x8e, 0x7f, 0x85, 0x3e,
  0x88, 0x54, 0x65, 0x3d, 0x47, 0xbd, 0xfa, 0xbd, 0x9a, 0xa0, 0x5e, 0x3e,
  0x6f, 0x0b, 0x0c, 0x3e, 0xb3, 0x03, 0xb3, 0x3d, 0xfd, 0x0a, 0x17, 0x3e,
  0xc1, 0x81, 0xda, 0xbd, 0x29, 0xf0, 0x65, 0x3e, 0x3c, 0xaf, 0x49, 0xbd,
  0x4c, 0xfb, 0x00, 0x3d, 0x3d, 0x64, 0x7d, 0xbd, 0x2e, 0x26, 0x38, 0x3e,
  0x1a, 0x49, 0x1d, 0xbd, 0x33, 0x79, 0x26, 0xbe, 0x89, 0x13, 0x3e, 0x3e,
  0x7d, 0xc4, 0x93, 0x3c, 0x18, 0x9e, 0xb1, 0xbd, 0x4e, 0xce, 0x87, 0xbe,
  0x4e, 0x31, 0x84, 0x3d, 0x48, 0x19, 0x86, 0x3e, 0xcc, 0x8b, 0x78, 0xbd,
  0x7d, 0xfc, 0xea, 0x3d, 0xf5, 0x5d, 0x82, 0x3e, 0x2e, 0xb2, 0x38, 0x3e,
  0x23, 0xf3, 0x10, 0x3d, 0xaa, 0x10, 0x82, 0x3e, 0x64, 0x36, 0x2a, 0xbd,
  0x0d, 0xf3, 0x3c, 0xbd, 0x7e, 0x79, 0x12, 0xbe, 0x2e, 0xb7, 0x68, 0xbe,
  0x0c, 0xc6, 0x30, 0xbc, 0x74, 0xff, 0x7a, 0xbd, 0x57, 0x2e, 0x48, 0x3e,
  0x81, 0x1c, 0x51, 0xbe, 0x16, 0x28, 0xd8, 0x3d, 0x89, 0x2b, 0x32, 0x3e,
  0x3d, 0x15, 0x04, 0xbe, 0x3e, 0x9e, 0x2a, 0x3d, 0x91, 0xa1, 0xec, 0xbd,
  0xfa, 0x21, 0x2f, 0xbe, 0xea, 0x0f, 0xb2, 0xbc, 0xb2, 0xd8, 0x8c, 0xbd,
  0x27, 0x4e, 0x6f, 0x3e, 0xce, 0xa7, 0x0e, 0xbe, 0x11, 0x0a, 0x29, 0x3e,
  0x60, 0xd7, 0xa8, 0xbe, 0xd5, 0xb6, 0x25, 0x3d, 0x01, 0xcf, 0x0d, 0xbd,
  0x42, 0x27, 0x15, 0xbd, 0xa0, 0xb8, 0x83, 0xbe, 0x18, 0x99, 0x2f, 0xbe,
  0x52, 0xc2, 0x32, 0x3e, 0xf2, 0x9f, 0x75, 0x3c, 0x9d, 0x99, 0x04, 0xbe,
  0xc6, 0xf3, 0x7f, 0x3e, 0x3d, 0x1a, 0x42, 0xbe, 0xb2, 0x90, 0x10, 0x3e,
  0x31, 0xa7, 0x6a, 0x3d, 0xd5, 0x59, 0x68, 0x3e, 0xe9, 0x8d, 0xd9, 0xbd,
  0x2d, 0xeb, 0x52, 0x3d, 0x10, 0x4b, 0xc4, 0x3e, 0xc6, 0xf0, 0xce, 0x3d,
  0x09, 0x56, 0x00, 0x3e, 0x0c, 0xe7, 0x80, 0x3d, 0x3a, 0x12, 0xad, 0x3e,
  0x27, 0x89, 0xaa, 0x3e, 0x7d, 0x81, 0xca, 0x3d, 0xac, 0xe8, 0x98, 0x3d,
  0x34, 0x1f, 0x5a, 0x3d, 0x96, 0x54, 0x14, 0xbe, 0xb7, 0xdf, 0x1b, 0x3e,
  0x5b, 0x1b, 0x3c, 0x3e, 0xd5, 0xd5, 0x3e, 0xbe, 0x5e, 0xfa, 0x03, 0x3e,
  0xa4, 0x09, 0x58, 0xbe, 0x02, 0x02, 0x23, 0xbe, 0x6b, 0x99, 0x95, 0x3e,
  0xb7, 0x45, 0xed, 0x3d, 0x29, 0x36, 0x8b, 0x3e, 0x50, 0x06, 0xc8, 0xbd,
  0x95, 0x11, 0x35, 0x3b, 0x5c, 0x0c, 0x2e, 0xbd, 0x94, 0x5f, 0x21, 0x3e,
  0xa4, 0xe0, 0xc2, 0x3e, 0x3e, 0xa2, 0x04, 0xbe, 0xaf, 0x6d, 0xcd, 0x3c,
  0xfd, 0x5b, 0xf8, 0x3d, 0xfb, 0x33, 0xf9, 0x3d, 0x8e, 0x4f, 0xc2, 0x3d,
  0x88, 0x8a, 0xb1, 0x3d, 0xb8, 0xea, 0x40, 0xbe, 0x6e, 0xec, 0xeb, 0x3d,
  0x95, 0x22, 0x56, 0xbc, 0x62, 0xc2, 0xd2, 0xbc, 0x4d, 0xcb, 0x9e, 0xbd,
  0xb7, 0x36, 0xf3, 0x3d, 0x84, 0xc3, 0x2c, 0x3e, 0x68, 0x15, 0x9d, 0x3e,
  0x75, 0x20, 0x06, 0x3c, 0xfb, 0x39, 0xa6, 0x3c, 0xd0, 0x8a, 0xb3, 0xbd,
  0x2c, 0x93, 0x07, 0xbe, 0x15, 0xe3, 0x1f, 0x3e, 0xa9, 0xe2, 0x49, 0x3e,
  0x42, 0x85, 0x9b, 0xbb, 0xf6, 0xef, 0x4a, 0xbe, 0x66, 0x8b, 0x3e, 0xbe,
  0xc8, 0x7e, 0x07, 0x3e, 0xae, 0x38, 0xaf, 0x3d, 0xe0, 0x4d, 0x92, 0x3d,
  0x13, 0xa8, 0xa9, 0xbd, 0x19, 0x2f, 0x43, 0xbe, 0x15, 0x99, 0x92, 0x3d,
  0x64, 0x4a, 0x2d, 0x3e, 0xbc, 0xd7, 0x55, 0xbe, 0x11, 0x87, 0x07, 0x3e,
  0x24, 0x97, 0x06, 0xbd, 0x34, 0x3f, 0x9f, 0xbe, 0x39, 0xa9, 0xe8, 0x3c,
  0x79, 0x24, 0xe9, 0xbc, 0x01, 0xbc, 0x54, 0x3d, 0x8b, 0xc7, 0xd9, 0xbd,
  0xe6, 0xf7, 0x52, 0xbe, 0x59, 0x71, 0x43, 0xbe, 0x35, 0xd4, 0xb8, 0x3e,
  0x96, 0x17, 0xcd, 0xbd, 0x7c, 0xc9, 0x81, 0x3e, 0xf9, 0x0f, 0xaa, 0x3c,
  0x61, 0xdd, 0x67, 0x3e, 0x40, 0x52, 0xee, 0x3c, 0xf3, 0x08, 0x74, 0x3c,
  0xe6, 0x51, 0x99, 0xbd, 0x04, 0x00, 0xae, 0xbd, 0xb3, 0x59, 0xe8, 0xbd,
  0x1c, 0x0a, 0x36, 0x3d, 0x18, 0x5f, 0xb5, 0x3d, 0x62, 0x76, 0x4b, 0x3d,
  0x31, 0x1b, 0x3a, 0xb8, 0xbb, 0xe3, 0xaa, 0x3d, 0xb9, 0x3c, 0x21, 0x3e,
  0x24, 0x03, 0x03, 0x3f, 0x2b, 0xce, 0xb9, 0x3d, 0xed, 0x9b, 0x4b, 0x3e,
  0x17, 0xb1, 0x82, 0x3d, 0x98, 0xef, 0x3c, 0x3e, 0x42, 0xd2, 0xad, 0x3e,
  0x05, 0x18, 0xe0, 0x3c, 0xcd, 0x90, 0x96, 0x3e, 0xf0, 0x0b, 0xb5, 0x3c,
  0x66, 0xf9, 0xa1, 0x3c, 0x1a, 0x35, 0x38, 0x3e, 0x25, 0xf1, 0x29, 0x3e,
  0xa3, 0x8d, 0x27, 0x3e, 0x11, 0x4d, 0x30, 0xbe, 0xbc, 0xf8, 0x86, 0xbe,
  0xf6, 0xb1, 0x16, 0x3d, 0xe8, 0xf3, 0xb3, 0x3e, 0xb2, 0x43, 0x01, 0xbe,
  0xed, 0xf7, 0x83, 0x3e, 0x05, 0xc6, 0x36, 0xbe, 0x44, 0xf1, 0x23, 0x3e,
  0xb6, 0xc7, 0xe5, 0xbc, 0x15, 0xb3, 0x21, 0xbe, 0xd9, 0x01, 0xab, 0x3d,
  0x27, 0xc4, 0xdc, 0x3b, 0x09, 0x74, 0x6b, 0xbe, 0x05, 0x39, 0xf7, 0xbd,
  0x9a, 0x8e, 0xb8, 0xba, 0x79, 0x99, 0x74, 0xbc, 0x0f, 0x0e, 0x1c, 0xbe,
  0xf0, 0xb6, 0xd6, 0x3d, 0xd6, 0x5a, 0xcb, 0xbc, 0x79, 0x8f, 0x74, 0x3d,
  0xe8, 0x62, 0xf6, 0x3c, 0xbe, 0x23, 0x53, 0x3c, 0xc0, 0xd0, 0x16, 0xbe,
  0x10, 0xe7, 0x27, 0xbd, 0x14, 0xf7, 0x52, 0x3e, 0xe0, 0x7b, 0xf2, 0xbd,
  0x62, 0x66, 0x3f, 0xbe, 0x04, 0xd7, 0x0e, 0x3d, 0x1a, 0x5b, 0xf1, 0xbd,
  0xc3, 0x3f, 0x47, 0x3e, 0x23, 0x4c, 0xec, 0x3c, 0x12, 0x5c, 0xde, 0xbc,
  0xd7, 0x6a, 0x27, 0xbe, 0x34, 0x5d, 0x57, 0xbe, 0x4e, 0xae, 0x0e, 0xbd,
  0x17, 0x68, 0x0a, 0xbd, 0x4f, 0xa2, 0x13, 0xbe, 0xaa, 0xa8, 0x1f, 0xbe,
  0x98, 0x62, 0xf7, 0x3d, 0x85, 0x52, 0x2e, 0x3e, 0x69, 0x79, 0xa8, 0x3d,
  0x9f, 0x29, 0x45, 0xbd, 0xb7, 0x51, 0x38, 0xbe, 0x1c, 0xaa, 0x2c, 0x3d,
  0x23, 0x05, 0x05, 0xbd, 0x35, 0x33, 0x37, 0xbd, 0xe9, 0x64, 0x92, 0xbd,
  0xb8, 0xaa, 0x0f, 0xbe, 0x26, 0xd9, 0xe5, 0xbc, 0xa5, 0xe7, 0x2a, 0xbe,
  0xad, 0xdf, 0xef, 0x3d, 0x26, 0xf2, 0x94, 0xbd, 0x72, 0x13, 0x6c, 0xbd,
  0xb4, 0xa0, 0x26, 0xbe, 0x28, 0x86, 0xdf, 0xbd, 0x2a, 0xf7, 0x82, 0x3d,
  0xa0, 0x9a, 0x0d, 0x3d, 0x24, 0xcd, 0x16, 0xbe, 0xe1, 0x33, 0x4b, 0xbe,
  0x32, 0x41, 0xad, 0xbd, 0xa2, 0x3a, 0x57, 0x3d, 0xca, 0xd2, 0x37, 0xbe,
  0xea, 0xac, 0x50, 0xbe, 0xd6, 0x3f, 0x0a, 0x3d, 0x22, 0x4a, 0x84, 0xbd,
  0x6f, 0xec, 0x46, 0xbe, 0x14, 0xa3, 0xb9, 0x3d, 0xe2, 0x82, 0x30, 0xbe,
  0x71, 0xc6, 0x9d, 0xbd, 0x1b, 0x2b, 0xeb, 0x3c, 0xef, 0x25, 0x8c, 0xbd,
  0x5a, 0xc3, 0x82, 0x3d, 0x08, 0x4c, 0xb7, 0xbd, 0xcd, 0xd0, 0x94, 0xbd,
  0x0c, 0x13, 0x52, 0x3d, 0x19, 0xf4, 0x38, 0xbe, 0x6e, 0x0e, 0x66, 0xbe,
  0xb0, 0x3f, 0x66, 0xbd, 0x89, 0x8f, 0x59, 0xbe, 0x33, 0xb5, 0x0f, 0xbe,
  0x33, 0x40, 0x1b, 0x3e, 0xe1, 0x4d, 0x4d, 0xbe, 0x18, 0x40, 0xcc, 0xbd,
  0x40, 0xec, 0x61, 0xbd, 0x41, 0x4d, 0xaf, 0x3d, 0x5e, 0x2f, 0x04, 0xbe,
  0x39, 0xd6, 0x07, 0xbe, 0xf8, 0x0b, 0xf5, 0x3c, 0x8c, 0x3b, 0xdd, 0xbd,
  0x60, 0x85, 0xec, 0x3d, 0x44, 0x7c, 0x07, 0x3d, 0xa5, 0xd1, 0x09, 0x3e,
  0x8c, 0x69, 0xcb, 0x3d, 0x5b, 0x5b, 0xba, 0x3b, 0xc8, 0x1b, 0x72, 0xbd,
  0xdb, 0xae, 0xba, 0x3d, 0x8f, 0x4b, 0x03, 0x3e, 0x65, 0x32, 0x1c, 0xbe,
  0x72, 0x25, 0x58, 0x3d, 0x97, 0xbf, 0x1c, 0xbe, 0xd7, 0xd2, 0x46, 0xbe,
  0x21, 0x4f, 0x48, 0x3d, 0x08, 0xe7, 0x3e, 0x3e, 0x23, 0x08, 0xcb, 0xbd,
  0x26, 0x96, 0x56, 0xbd, 0xbe, 0xfe, 0x1c, 0x3e, 0x43, 0x92, 0xe0, 0xbd,
  0x8b, 0xbe, 0x2b, 0x3e, 0xdb, 0x28, 0x46, 0xbe, 0x2c, 0xcf, 0x46, 0xbd,
  0x11, 0x54, 0xee, 0x3c, 0x65, 0xa4, 0xa8, 0x3b, 0x09, 0xaf, 0xb4, 0x3d,
  0xab, 0x5c, 0x40, 0x3e, 0x42, 0xed, 0xcc, 0xbd, 0x71, 0x7a, 0xbc, 0x3d,
  0xf4, 0xbd, 0x70, 0xbc, 0x1e, 0x9e, 0x19, 0x3e, 0x98, 0x43, 0x3c, 0xbe,
  0xd2, 0x91, 0xbf, 0x3d, 0x9a, 0x39, 0x4d, 0x3d, 0x9a, 0x00, 0x0e, 0x3e,
  0xde, 0x25, 0xc9, 0x3d, 0x8a, 0x0f, 0x94, 0xbd, 0x51, 0xa6, 0x6e, 0x3d,
  0x8c, 0x81, 0x91, 0xbd, 0xf6, 0x45, 0x0f, 0xbe, 0x58, 0x95, 0xb3, 0x3d,
  0x0a, 0xfa, 0x95, 0x3d, 0xe1, 0x48, 0x06, 0x3e, 0xe5, 0xb5, 0x72, 0xbc,
  0xbf, 0xc4, 0x4a, 0x3e, 0xce, 0x43, 0x98, 0xbd, 0xdc, 0x78, 0x6f, 0x3e,
  0x54, 0x03, 0x08, 0x3d, 0x2d, 0x74, 0x06, 0x3d, 0xc1, 0xef, 0x02, 0x3e,
  0xef, 0x41, 0xeb, 0xbd, 0x8d, 0xe8, 0xb9, 0x3c, 0x42, 0x1c, 0x4c, 0xbe,
  0xa1, 0x1b, 0x24, 0x3d, 0xde, 0xdb, 0xfe, 0x3c, 0xb8, 0x91, 0x3e, 0xbd,
  0xe5, 0xec, 0x1c, 0xbe, 0x19, 0xe3, 0x93, 0x3e, 0x23, 0xbe, 0x4c, 0xbd,
  0x16, 0xdb, 0x04, 0xbe, 0xce, 0xfb, 0x77, 0x3d, 0x75, 0x2b, 0x64, 0x3e,
  0xf3, 0xf7, 0xc1, 0xbd, 0x31, 0xbd, 0x64, 0x3e, 0xdd, 0x94, 0x4c, 0xbe,
  0xbd, 0x6c, 0x45, 0xbe, 0x0f, 0x77, 0xd3, 0x3d, 0xe1, 0x02, 0xf0, 0x3d,
  0x75, 0x1b, 0x30, 0x3e, 0xf3, 0xf7, 0x31, 0x3d, 0x2f, 0xc3, 0x26, 0x3d,
  0x05, 0x52, 0x61, 0x3d, 0xf5, 0x91, 0x25, 0xbe, 0xb4, 0xbe, 0x7a, 0x3e,
  0x18, 0x9b, 0x06, 0x3d, 0xbc, 0x59, 0x50, 0x3e, 0xdb, 0xea, 0x17, 0x3e,
  0x70, 0x60, 0x75, 0x3d, 0x87, 0x64, 0x1d, 0x3e, 0x1a, 0x00, 0x12, 0x3e,
  0x25, 0x82, 0x86, 0xbe, 0xea, 0x7b, 0x8c, 0x3c, 0xd8, 0xf0, 0x89, 0x3e,
  0x9b, 0x90, 0x25, 0xbe, 0x2d, 0xb0, 0x7d, 0xbc, 0x5e, 0xfe, 0x91, 0x3e,
  0x82, 0xf2, 0x08, 0xbb, 0x3c, 0x25, 0x2f, 0x3e, 0xef, 0xe0, 0xf4, 0x3a,
  0x1f, 0x93, 0x0e, 0x3e, 0x24, 0x3e, 0x08, 0xbe, 0x40, 0x40, 0xa0, 0xbd,
  0x3f, 0xc4, 0x58, 0xbe, 0x58, 0xf9, 0x27, 0x3d, 0x10, 0x5c, 0xdb, 0x3c,
  0xb8, 0x85, 0xc4, 0xbd, 0x18, 0x6b, 0x9e, 0xbe, 0x41, 0xe6, 0x1a, 0xbe,
  0xe0, 0x8d, 0x61, 0x3e, 0xf9, 0x3c, 0xb4, 0x3d, 0x79, 0x0b, 0x45, 0xbe,
  0xa1, 0xc9, 0xfc, 0x3d, 0x5a, 0x7b, 0x54, 0x3e, 0x30, 0x10, 0xed, 0x3d,
  0x31, 0x6e, 0xc6, 0x3c, 0xc0, 0x7c, 0xc2, 0xbc, 0x1d, 0x3e, 0x56, 0x3d,
  0xa7, 0xa7, 0x76, 0x3e, 0xe3, 0x26, 0x08, 0x3d, 0xde, 0x8c, 0xb7, 0xbb,
  0x1e, 0x1a, 0xa6, 0x3d, 0x5c, 0x4f, 0x56, 0x3e, 0x4c, 0xce, 0x35, 0x3d,
  0x44, 0x35, 0x93, 0x3d, 0xdb, 0x67, 0x26, 0x3e, 0xd9, 0x57, 0xff, 0x3d,
  0x65, 0x16, 0x1b, 0xbe, 0x65, 0x7d, 0x34, 0x3e, 0x69, 0x54, 0x11, 0x3e,
  0x48, 0xec, 0xc6, 0x3d, 0x1a, 0x55, 0xcb, 0x3d, 0x00, 0x66, 0x90, 0xbd,
  0x86, 0x1d, 0x9a, 0x3c, 0xb2, 0x19, 0xe3, 0xbd, 0x42, 0x75, 0xc4, 0xbe,
  0xb9, 0xec, 0xcf, 0x3d, 0xfd, 0xc0, 0xdd, 0x3d, 0xc8, 0x81, 0x27, 0xbd,
  0x2e, 0x78, 0xf5, 0xbd, 0xa6, 0x56, 0xbc, 0x3c, 0xf9, 0x47, 0x24, 0x3e,
  0x0c, 0x06, 0x41, 0x3d, 0x2b, 0xa9, 0x4b, 0x3e, 0x1d, 0x88, 0x65, 0x3e,
  0x5e, 0xbd, 0xd1, 0x3d, 0xaa, 0xc2, 0x5c, 0xbd, 0xc9, 0xa0, 0x44, 0xbd,
  0x11, 0x62, 0xba, 0xbd, 0x2b, 0xbe, 0xd2, 0xbd, 0xb0, 0x44, 0x0d, 0x3e,
  0x8d, 0x0c, 0xd4, 0x3c, 0xac, 0x69, 0x06, 0x3e, 0x4b, 0x6a, 0x1e, 0xbe,
  0xf8, 0x0c, 0x37, 0x3e, 0x1e, 0xff, 0x9a, 0xbd, 0xc4, 0xa5, 0x09, 0x3e,
  0xdb, 0xc6, 0x15, 0x3e, 0xb9, 0x58, 0xfe, 0xbd, 0x59, 0x27, 0x22, 0xbc,
  0xb8, 0xb6, 0x9a, 0x3e, 0xe2, 0x43, 0x2a, 0xbe, 0xf0, 0xa2, 0xbb, 0xbd,
  0x11, 0x27, 0x3f, 0xbd, 0x87, 0x18, 0xfc, 0x3d, 0x91, 0x8a, 0x82, 0x3e,
  0xde, 0xcd, 0xe4, 0xbd, 0xbd, 0x8e, 0x18, 0x3d, 0x67, 0xbb, 0xda, 0xbd,
  0x32, 0xa1, 0x81, 0xbc, 0x95, 0xf7, 0x26, 0x3e, 0x97, 0x97, 0x0e, 0xbe,
  0x31, 0x6a, 0xb2, 0xbd, 0x93, 0x8c, 0x99, 0x3e, 0x38, 0x3b, 0xa2, 0xbc,
  0xfa, 0x14, 0x72, 0x3e, 0x33, 0xf0, 0xff, 0x3d, 0x28, 0xa2, 0x37, 0xbd,
  0xfb, 0xec, 0xaa, 0xbd, 0xb1, 0xcf, 0xb4, 0x3d, 0xfb, 0x9d, 0x02, 0xbe,
  0x01, 0x6f, 0xe6, 0x3d, 0xe6, 0xe0, 0xbc, 0x3b, 0x05, 0x03, 0x95, 0x3c,
  0x18, 0x31, 0x3e, 0x3d, 0x4f, 0xde, 0x0d, 0xbd, 0x3b, 0xe7, 0xe1, 0xbb,
  0x96, 0xb3, 0x88, 0x3d, 0x25, 0x77, 0x2d, 0x3c, 0xb8, 0x11, 0x37, 0x3e,
  0x98, 0xce, 0x99, 0xbb, 0xec, 0x8c, 0xb4, 0x3d, 0xb4, 0x2f, 0x46, 0x3e,
  0xcb, 0x59, 0x47, 0x3e, 0xa6, 0xe6, 0x39, 0x3e, 0x13, 0x7a, 0x5f, 0x3e,
  0x0a, 0x9d, 0xbb, 0xbd, 0x4c, 0x70, 0xf1, 0xbc, 0x85, 0x0d, 0xa4, 0x3d,
  0xd2, 0xee, 0x11, 0xbd, 0x00, 0x1d, 0x5e, 0x3e, 0x07, 0xd2, 0xb3, 0xbd,
  0xc6, 0xf7, 0x98, 0x3e, 0xf6, 0x18, 0xad, 0x3d, 0xf5, 0x95, 0x3f, 0xbd,
  0x17, 0xa1, 0xdb, 0x3d, 0x15, 0x72, 0xfa, 0x3c, 0xa2, 0x9e, 0x07, 0xbe,
  0x26, 0x04, 0xeb, 0x3c, 0x7e, 0xc6, 0x4d, 0x3e, 0xab, 0xb7, 0x0f, 0x3e,
  0x6f, 0xf9, 0x2d, 0xbe, 0xc7, 0x06, 0x00, 0x3e, 0x86, 0xa1, 0x60, 0xbd,
  0x22, 0x1e, 0x50, 0xbe, 0xb9, 0x0c, 0xb3, 0xbb, 0xe5, 0x48, 0x9b, 0xbd,
  0x15, 0xa1, 0x1e, 0x3d, 0x83, 0xe4, 0x41, 0xbd, 0xbf, 0xa9, 0xa9, 0x3d,
  0x66, 0x4d, 0x4d, 0x3e, 0x6f, 0x3d, 0xcd, 0x3d, 0x33, 0xac, 0x57, 0x3e,
  0xe3, 0x01, 0xf5, 0xbd, 0x89, 0xd4, 0xad, 0xbc, 0x10, 0xb8, 0x3b, 0x3c,
  0x3c, 0xfe, 0xbf, 0xbd, 0xf7, 0xb5, 0x4b, 0x3e, 0x32, 0x52, 0x6b, 0x3e,
  0x5e, 0x05, 0x9b, 0x3d, 0x99, 0x1e, 0xb0, 0x3d, 0x8d, 0xa7, 0x03, 0xbe,
  0xd9, 0x4b, 0x3d, 0x3e, 0xed, 0x82, 0x27, 0xbd, 0x85, 0xd3, 0xf7, 0x3c,
  0x27, 0x23, 0xe4, 0xbd, 0xfb, 0x54, 0x67, 0x3e, 0xb0, 0x8d, 0x9e, 0xbd,
  0xd6, 0x43, 0x59, 0x3d, 0x97, 0xa9, 0x51, 0x3d, 0xe5, 0xbc, 0x9a, 0x3e,
  0xfe, 0xcb, 0x45, 0x3e, 0x43, 0x5c, 0xb8, 0x3d, 0xe0, 0x9f, 0x89, 0xbc,
  0xf2, 0x96, 0xc6, 0xbd, 0xd7, 0xa0, 0x8f, 0x3c, 0x8f, 0xd3, 0x20, 0xbd,
  0xaf, 0xc3, 0x10, 0xbe, 0x29, 0x31, 0xe6, 0xbd, 0x08, 0x4d, 0x9d, 0xbd,
  0xed, 0x5a, 0x95, 0x3d, 0x24, 0x44, 0x0a, 0xbd, 0xe8, 0xca, 0x12, 0xbe,
  0xe4, 0xa5, 0x4e, 0x3e, 0x4c, 0xa4, 0xe6, 0x3d, 0x67, 0x63, 0x30, 0x3e,
  0xcd, 0x42, 0xad, 0xbd, 0xe3, 0xdd, 0x18, 0x3e, 0xbe, 0x53, 0x14, 0xbd,
  0xd5, 0x15, 0x2a, 0x3e, 0x17, 0x42, 0x31, 0x3e, 0x87, 0xd4, 0xd1, 0xbd,
  0x28, 0xf3, 0x3b, 0x3e, 0x17, 0x80, 0x11, 0xbe, 0x22, 0x8c, 0x56, 0x3e,
  0xde, 0xf9, 0x85, 0x3e, 0x2f, 0x7b, 0x47, 0xbd, 0xc3, 0xc1, 0xba, 0x3d,
  0x85, 0x4b, 0x3c, 0xbd, 0xbb, 0xb7, 0x72, 0x3e, 0x25, 0xd2, 0xad, 0xbd,
  0xd2, 0xbe, 0x39, 0xbe, 0xb2, 0x35, 0x6d, 0x3e, 0xce, 0xae, 0x64, 0x3d,
  0xec, 0x3d, 0x47, 0xbe, 0xb1, 0x6e, 0xdb, 0x3d, 0xd2, 0x73, 0x3f, 0x3e,
  0x4b, 0x0e, 0x7f, 0x3e, 0xf8, 0xa7, 0xa1, 0xbd, 0xac, 0x07, 0xa0, 0xbd,
  0xf2, 0xc8, 0xff, 0xbc, 0x65, 0xdb, 0x4c, 0x3d, 0x9d, 0x91, 0xef, 0x3d,
  0x65, 0x6f, 0x36, 0x3d, 0x87, 0x80, 0x2f, 0xbe, 0x58, 0x63, 0x64, 0x3e,
  0x1a, 0x4c, 0x24, 0x3e, 0x25, 0xa8, 0xc7, 0x3d, 0x71, 0x95, 0x11, 0x3e,
  0x46, 0x0d, 0x7e, 0x3d, 0x33, 0x2e, 0xbf, 0x3d, 0x5a, 0x7a, 0x6b, 0x3d,
  0x95, 0x17, 0x47, 0x3e, 0x0a, 0xaf, 0x3f, 0x3e, 0x40, 0x49, 0xb9, 0xbc,
  0xc0, 0x6c, 0xa8, 0xbd, 0xcf, 0xcb, 0xfc, 0xbd, 0x5b, 0xa0, 0x76, 0x3e,
  0x7c, 0x9c, 0xe8, 0x3d, 0x1e, 0xd0, 0x73, 0xbc, 0x81, 0xdd, 0x46, 0x3d,
  0x0f, 0x80, 0x86, 0x3c, 0xa3, 0xe0, 0x59, 0x3e, 0x23, 0x01, 0x92, 0xbd,
  0x8d, 0xdf, 0x15, 0x3c, 0x56, 0x0d, 0xf7, 0x3c, 0x0a, 0xab, 0x22, 0x3e,
  0xad, 0xf5, 0x28, 0x3c, 0x9e, 0xcf, 0x2d, 0xbd, 0xb4, 0x51, 0x76, 0x3e,
  0xac, 0xc2, 0x39, 0x3e, 0x9b, 0x94, 0xb5, 0x3b, 0x15, 0x9e, 0x96, 0x3d,
  0xaa, 0x4a, 0xa9, 0xbd, 0x58, 0x7f, 0x88, 0x3e, 0xfa, 0x97, 0xae, 0xbd,
  0x08, 0x68, 0xe5, 0xbd, 0x3a, 0x96, 0x55, 0x3d, 0x5c, 0xb0, 0xda, 0xbd,
  0xd0, 0xc7, 0xb9, 0x3d, 0xd0, 0xd1, 0x14, 0xbd, 0xe7, 0xff, 0x59, 0x3e,
  0x62, 0x09, 0xaf, 0xbd, 0x6e, 0x6d, 0xf4, 0x3d, 0x40, 0xf4, 0x80, 0xbc,
  0x2c, 0x21, 0xe0, 0xbd, 0xce, 0xcd, 0xa6, 0x3d, 0x3c, 0xa3, 0xe4, 0xbc,
  0xba, 0xde, 0x58, 0x3e, 0x06, 0x4f, 0x46, 0x3e, 0x6d, 0xc0, 0x82, 0x3e,
  0x8e, 0xa9, 0xe1, 0xba, 0x25, 0x22, 0x9b, 0x39, 0x41, 0x58, 0xf1, 0xbd,
  0xa4, 0x9c, 0x17, 0x3a, 0x11, 0x0c, 0xc9, 0xbd, 0x20, 0x56, 0x48, 0x3d,
  0xdc, 0xdd, 0x46, 0x3e, 0xae, 0x2a, 0xc2, 0xbb, 0x6b, 0x4c, 0xa7, 0x3d,
  0x1b, 0x8e, 0x3b, 0x3e, 0x6d, 0xb9, 0x64, 0x3d, 0x74, 0x8a, 0xda, 0x3d,
  0x9f, 0x7c, 0xf9, 0xbd, 0x56, 0x7d, 0x64, 0x3d, 0xf0, 0xdc, 0x32, 0xbd,
  0x87, 0x01, 0x1c, 0x3e, 0xc4, 0x91, 0xc5, 0xbd, 0x67, 0xaf, 0x34, 0x3e,
  0x6b, 0x93, 0xd2, 0xbd, 0x5f, 0xc0, 0x23, 0x3e, 0x3c, 0x4b, 0xe5, 0x3d,
  0x69, 0xd0, 0xb1, 0x3c, 0xc7, 0x3b, 0xa0, 0xbd, 0x76, 0x4a, 0x4d, 0x3d,
  0xaf, 0x3e, 0x66, 0xbd, 0x28, 0x5c, 0x72, 0x3e, 0xf5, 0x9b, 0xb7, 0x3d,
  0xbd, 0x38, 0x95, 0x3d, 0xe9, 0x32, 0x51, 0xbe, 0x96, 0x9b, 0xde, 0xbc,
  0xdb, 0xac, 0xe8, 0xbd, 0x5d, 0x10, 0xda, 0x3c, 0x48, 0x51, 0xa2, 0x3d,
  0x9a, 0x99, 0x31, 0xbe, 0x08, 0xb8, 0xae, 0x3c, 0x0e, 0x35, 0x94, 0x3d,
  0x39, 0x62, 0x88, 0x3b, 0x14, 0xa1, 0xf0, 0x3d, 0x65, 0x74, 0xf8, 0xbc,
  0xec, 0x2d, 0xc4, 0xbc, 0x32, 0x27, 0x66, 0x3e, 0xd9, 0x70, 0x88, 0x3e,
  0x6f, 0x3e, 0x43, 0x3e, 0x8b, 0x71, 0xc3, 0xbd, 0xcc, 0x34, 0x39, 0xbe,
  0xba, 0xdd, 0xa4, 0xbd, 0xe6, 0xbb, 0x9a, 0x3d, 0x46, 0xfb, 0x17, 0x3e,
  0xa0, 0xa0, 0xc0, 0x3d, 0x6e, 0x20, 0x3b, 0x3e, 0xcc, 0x90, 0x84, 0x3d,
  0xef, 0xa2, 0x4e, 0xbc, 0xd8, 0xde, 0xa2, 0xbd, 0x23, 0x57, 0x11, 0x3c,
  0xf7, 0x59, 0xe2, 0x3d, 0x22, 0x66, 0x70, 0x3e, 0x60, 0xaa, 0xec, 0x3d,
  0x76, 0x69, 0x4b, 0x3e, 0xb6, 0x9d, 0xae, 0xbd, 0x9f, 0x7a, 0x42, 0xbe,
  0x69, 0x86, 0xc0, 0xbd, 0xe7, 0xa9, 0x84, 0x3b, 0x20, 0x5e, 0xb7, 0xbc,
  0x17, 0xd8, 0x49, 0xbe, 0xa8, 0x61, 0x5c, 0xbe, 0x57, 0x26, 0x3e, 0xbe,
  0x02, 0x2f, 0x08, 0xbe, 0x1f, 0xd9, 0xd0, 0x3d, 0xca, 0xce, 0x4e, 0xbe,
  0x43, 0xde, 0x1c, 0xbe, 0xc3, 0xc5, 0x27, 0xbd, 0x79, 0x11, 0x7b, 0xbe,
  0x9c, 0xbf, 0xa2, 0xbc, 0x92, 0xcc, 0xd8, 0xbc, 0x68, 0xbd, 0x44, 0xbe,
  0x1b, 0x81, 0x43, 0xbc, 0x68, 0x8b, 0xbe, 0xbd, 0x02, 0x30, 0xc1, 0xbd,
  0x10, 0x2d, 0x46, 0xbe, 0x36, 0xd4, 0x11, 0x3e, 0x2a, 0x2b, 0xe2, 0xbd,
  0x60, 0xdf, 0xee, 0x3d, 0x5b, 0xe0, 0x64, 0xba, 0x1b, 0x91, 0x10, 0xbe,
  0x58, 0x1f, 0xe0, 0x3d, 0x15, 0xae, 0xca, 0x3c, 0xad, 0x7f, 0xed, 0x3d,
  0xd7, 0x7d, 0x06, 0x3e, 0x90, 0x6c, 0x67, 0xbe, 0x0c, 0xe9, 0x87, 0xbe,
  0xa6, 0xef, 0x0b, 0x3d, 0x38, 0xf1, 0x38, 0xbd, 0x1f, 0xc9, 0x8a, 0xbd,
  0x93, 0xbf, 0x93, 0xbb, 0x43, 0xcd, 0xb7, 0xbd, 0x9f, 0xf0, 0xbc, 0xbc,
  0x11, 0x6f, 0xdd, 0xbc, 0xd5, 0x76, 0xc0, 0xbd, 0xd2, 0x09, 0x45, 0x3d,
  0x5e, 0x3e, 0x3b, 0xbe, 0x1a, 0x81, 0x02, 0x3e, 0x7d, 0x78, 0x4c, 0xbe,
  0xd9, 0x6f, 0xd0, 0x3d, 0x0b, 0x7a, 0x0f, 0xbe, 0x95, 0xa0, 0x20, 0x3d,
  0xfa, 0x97, 0x8a, 0x3d, 0x29, 0x2f, 0x2c, 0xbd, 0x5e, 0x76, 0xf6, 0x3d,
  0xd4, 0xd8, 0x57, 0xbe, 0x35, 0x37, 0x2d, 0x3d, 0xdb, 0xb5, 0x58, 0x3d,
  0x2d, 0x7d, 0xc0, 0xbd, 0x37, 0x6c, 0x2c, 0xbd, 0xee, 0xe5, 0x00, 0x3c,
  0xaf, 0x6c, 0x10, 0xbe, 0x67, 0xb8, 0x2a, 0x3e, 0x87, 0x1f, 0x4c, 0xbe,
  0xe5, 0xa8, 0xc6, 0xbd, 0x91, 0x7b, 0x49, 0xbe, 0xbe, 0x3f, 0x11, 0x3a,
  0x52, 0xaf, 0x54, 0xbe, 0xce, 0x3c, 0x53, 0x3d, 0x4a, 0x8d, 0x22, 0xbc,
  0x2e, 0x07, 0xdf, 0x3d, 0xa0, 0x55, 0x48, 0xbe, 0xd6, 0x25, 0x5a, 0xbe,
  0x9e, 0x72, 0x37, 0xbe, 0xe7, 0x85, 0x27, 0xbc, 0xab, 0x15, 0x27, 0x3e,
  0xaf, 0x71, 0xbb, 0x3c, 0xdb, 0xac, 0x33, 0xbe, 0x31, 0x17, 0xa3, 0x3d,
  0x48, 0x2b, 0x78, 0xbc, 0x0f, 0x31, 0xec, 0xbc, 0x19, 0xc7, 0x3c, 0xbe,
  0x2a, 0xc0, 0x5a, 0xbd, 0xbc, 0x19, 0x0a, 0xbe, 0x2c, 0xb2, 0x06, 0x3e,
  0x5f, 0x5a, 0x05, 0x3e, 0xf4, 0x15, 0x82, 0x3d, 0x28, 0x42, 0x90, 0x3d,
  0x44, 0x61, 0x31, 0x3c, 0x09, 0x40, 0x40, 0x3e, 0xe9, 0x9e, 0x25, 0x3e,
  0xc5, 0x76, 0x1f, 0xbe, 0xaa, 0x00, 0x19, 0x3e, 0xc5, 0x7b, 0x1f, 0xbe,
  0x89, 0x31, 0xca, 0xbd, 0xa1, 0x9d, 0xcc, 0xbd, 0x36, 0x8a, 0xba, 0xbb,
  0xf8, 0xfa, 0x0f, 0xbe, 0x7c, 0x0e, 0x1f, 0x3d, 0x0e, 0xf5, 0xe0, 0xbc,
  0x28, 0xd6, 0x0d, 0x3d, 0xf7, 0xcb, 0xa7, 0xbd, 0x80, 0x87, 0x07, 0x3d,
  0x5a, 0xd5, 0x7d, 0xbd, 0xe5, 0xa8, 0x1a, 0x3c, 0xbe, 0x7b, 0x8b, 0xbd,
  0x08, 0x70, 0x18, 0xbe, 0x89, 0x2d, 0x2c, 0x3e, 0x4e, 0xb7, 0xc8, 0x3d,
  0xf1, 0xfa, 0xd0, 0xbd, 0xd5, 0xbb, 0x43, 0xbe, 0xa2, 0xd9, 0xba, 0xbd,
  0x98, 0xa3, 0x10, 0x3e, 0x24, 0x03, 0x67, 0x3d, 0x38, 0x2c, 0x08, 0xbc,
  0x00, 0x55, 0xa2, 0xbc, 0x7e, 0xcd, 0x10, 0xbd, 0x4a, 0xfe, 0xff, 0xff,
  0x10, 0x00, 0x00, 0x00, 0x05, 0x00, 0x00, 0x00, 0x14, 0x00, 0x00, 0x00,
  0x2c, 0x00, 0x00, 0x00, 0x02, 0x00, 0x00, 0x00, 0x10, 0x00, 0x00, 0x00,
  0x70, 0x00, 0x00, 0x00, 0x17, 0x00, 0x00, 0x00, 0x73, 0x65, 0x71, 0x75,
  0x65, 0x6e, 0x74, 0x69, 0x61, 0x6c, 0x2f, 0x64, 0x65, 0x6e, 0x73, 0x65,
  0x2f, 0x4d, 0x61, 0x74, 0x4d, 0x75, 0x6c, 0x00, 0x38, 0xfe, 0xff, 0xff,
  0x2e, 0xff, 0xff, 0xff, 0x04, 0x00, 0x00, 0x00, 0x08, 0x00, 0x00, 0x00,
  0xff, 0xff, 0xff, 0xff, 0x70, 0x00, 0x00, 0x00, 0x00, 0x00, 0x0e, 0x00,
  0x18, 0x00, 0x08, 0x00, 0x07, 0x00, 0x0c, 0x00, 0x10, 0x00, 0x14, 0x00,
  0x0e, 0x00, 0x00, 0x00, 0x00, 0x00, 0x00, 0x02, 0x10, 0x00, 0x00, 0x00,
  0x04, 0x00, 0x00, 0x00, 0x10, 0x00, 0x00, 0x00, 0x2c, 0x00, 0x00, 0x00,
  0x01, 0x00, 0x00, 0x00, 0x02, 0x00, 0x00, 0x00, 0x18, 0x00, 0x00, 0x00,
  0x73, 0x65, 0x71, 0x75, 0x65, 0x6e, 0x74, 0x69, 0x61, 0x6c, 0x2f, 0x66,
  0x6c, 0x61, 0x74, 0x74, 0x65, 0x6e, 0x2f, 0x43, 0x6f, 0x6e, 0x73, 0x74,
  0x00, 0x00, 0x00, 0x00, 0xa0, 0xfe, 0xff, 0xff, 0x96, 0xff, 0xff, 0xff,
  0x04, 0x00, 0x00, 0x00, 0x0c, 0x00, 0x00, 0x00, 0x2c, 0x31, 0x43, 0x3f,
  0x93, 0x72, 0x0d, 0xbf, 0xd3, 0xe5, 0xdd, 0xbe, 0x0a, 0xff, 0xff, 0xff,
  0x10, 0x00, 0x00, 0x00, 0x03, 0x00, 0x00, 0x00, 0x10, 0x00, 0x00, 0x00,
  0x3c, 0x00, 0x00, 0x00, 0x01, 0x00, 0x00, 0x00, 0x03, 0x00, 0x00, 0x00,
  0x29, 0x00, 0x00, 0x00, 0x73, 0x65, 0x71, 0x75, 0x65, 0x6e, 0x74, 0x69,
  0x61, 0x6c, 0x2f, 0x64, 0x65, 0x6e, 0x73, 0x65, 0x5f, 0x31, 0x2f, 0x42,
  0x69, 0x61, 0x73, 0x41, 0x64, 0x64, 0x2f, 0x52, 0x65, 0x61, 0x64, 0x56,
  0x61, 0x72, 0x69, 0x61, 0x62, 0x6c, 0x65, 0x4f, 0x70, 0x00, 0x00, 0x00,
  0x60, 0xff, 0xff, 0xff, 0x00, 0x00, 0x06, 0x00, 0x08, 0x00, 0x04, 0x00,
  0x06, 0x00, 0x00, 0x00, 0x04, 0x00, 0x00, 0x00, 0x40, 0x00, 0x00, 0x00,
  0x1f, 0x6c, 0xed, 0xbd, 0xe3, 0x84, 0x50, 0x3f, 0x7d, 0x26, 0x34, 0x3f,
  0xcf, 0x26, 0xdc, 0x3b, 0x11, 0x98, 0x24, 0xbd, 0xb0, 0x0c, 0x4c, 0xbd,
  0x8c, 0x0a, 0x90, 0xbd, 0x85, 0xc5, 0xde, 0xbe, 0x25, 0xdb, 0x19, 0x3e,
  0x32, 0xe8, 0x71, 0xbe, 0x96, 0x1e, 0x3a, 0x3e, 0xe2, 0xd1, 0xc9, 0xbc,
  0x05, 0x96, 0x8f, 0xbe, 0x00, 0xd6, 0x98, 0xbd, 0x9c, 0x9a, 0x80, 0xbe,
  0x33, 0xe7, 0x60, 0xbd, 0xae, 0xff, 0xff, 0xff, 0x10, 0x00, 0x00, 0x00,
  0x02, 0x00, 0x00, 0x00, 0x10, 0x00, 0x00, 0x00, 0x3c, 0x00, 0x00, 0x00,
  0x01, 0x00, 0x00, 0x00, 0x10, 0x00, 0x00, 0x00, 0x27, 0x00, 0x00, 0x00,
  0x73, 0x65, 0x71, 0x75, 0x65, 0x6e, 0x74, 0x69, 0x61, 0x6c, 0x2f, 0x64,
  0x65, 0x6e, 0x73, 0x65, 0x2f, 0x42, 0x69, 0x61, 0x73, 0x41, 0x64, 0x64,
  0x2f, 0x52, 0x65, 0x61, 0x64, 0x56, 0x61, 0x72, 0x69, 0x61, 0x62, 0x6c,
  0x65, 0x4f, 0x70, 0x00, 0x04, 0x00, 0x06, 0x00, 0x04, 0x00, 0x00, 0x00,
  0x00, 0x00, 0x0e, 0x00, 0x14, 0x00, 0x04, 0x00, 0x00, 0x00, 0x08, 0x00,
  0x0c, 0x00, 0x10, 0x00, 0x0e, 0x00, 0x00, 0x00, 0x10, 0x00, 0x00, 0x00,
  0x01, 0x00, 0x00, 0x00, 0x1c, 0x00, 0x00, 0x00, 0x2c, 0x00, 0x00, 0x00,
  0x04, 0x00, 0x00, 0x00, 0x01, 0x00, 0x00, 0x00, 0x40, 0x00, 0x00, 0x00,
  0x03, 0x00, 0x00, 0x00, 0x01, 0x00, 0x00, 0x00, 0x0c, 0x00, 0x00, 0x00,
  0x63, 0x6f, 0x6e, 0x76, 0x32, 0x64, 0x5f, 0x69, 0x6e, 0x70, 0x75, 0x74,
  0x00, 0x00, 0x00, 0x00, 0xfc, 0xff, 0xff, 0xff, 0x04, 0x00, 0x04, 0x00,
  0x04, 0x00, 0x00, 0x00
};


unsigned int model_tflite_len = 12316;// Fill the int in `src/model.cc` here